{
  "version": "1.0",
  "truncation": null,
  "padding": null,
  "added_tokens": [
    {
      "id": 0,
      "content": "[PAD]",
      "single_word": false,
      "lstrip": false,
      "rstrip": false,
      "normalized": false,
      "special": true
    },
    {
      "id": 1,
      "content": "[UNK]",
      "single_word": false,
      "lstrip": false,
      "rstrip": false,
      "normalized": false,
      "special": true
    },
    {
      "id": 2,
      "content": "[BOS]",
      "single_word": false,
      "lstrip": false,
      "rstrip": false,
      "normalized": false,
      "special": true
    },
    {
      "id": 3,
      "content": "[EOS]",
      "single_word": false,
      "lstrip": false,
      "rstrip": false,
      "normalized": false,
      "special": true
    },
    {
      "id": 4,
      "content": "[SYS]",
      "single_word": false,
      "lstrip": false,
      "rstrip": false,
      "normalized": false,
      "special": true
    },
    {
      "id": 5,
      "content": "[USR]",
      "single_word": false,
      "lstrip": false,
      "rstrip": false,
      "normalized": false,
      "special": true
    },
    {
      "id": 6,
      "content": "[ASS]",
      "single_word": false,
      "lstrip": false,
      "rstrip": false,
      "normalized": false,
      "special": true
    },
    {
      "id": 7,
      "content": "[SEP]",
      "single_word": false,
      "lstrip": false,
      "rstrip": false,
      "normalized": false,
      "special": true
    },
    {
      "id": 4324,
      "content": "[TOOL_NAME]",
      "single_word": false,
      "lstrip": false,
      "rstrip": false,
      "normalized": false,
      "special": true
    },
    {
      "id": 4325,
      "content": "[TOOL_ARGS]",
      "single_word": false,
      "lstrip": false,
      "rstrip": false,
      "normalized": false,
      "special": true
    },
    {
      "id": 4326,
      "content": "[TOOL_RESULT]",
      "single_word": false,
      "lstrip": false,
      "rstrip": false,
      "normalized": false,
      "special": true
    },
    {
      "id": 4327,
      "content": "[BOTH]",
      "single_word": false,
      "lstrip": false,
      "rstrip": false,
      "normalized": false,
      "special": true
    },
    {
      "id": 4328,
      "content": "[EOTH]",
      "single_word": false,
      "lstrip": false,
      "rstrip": false,
      "normalized": false,
      "special": true
    }
  ],
  "normalizer": null,
  "pre_tokenizer": {
    "type": "ByteLevel",
    "add_prefix_space": false,
    "trim_offsets": true,
    "use_regex": true
  },
  "post_processor": {
    "type": "TemplateProcessing",
    "single": [
      {
        "SpecialToken": {
          "id": "[BOS]",
          "type_id": 0
        }
      },
      {
        "Sequence": {
          "id": "A",
          "type_id": 0
        }
      },
      {
        "SpecialToken": {
          "id": "[EOS]",
          "type_id": 0
        }
      }
    ],
    "pair": [
      {
        "SpecialToken": {
          "id": "[BOS]",
          "type_id": 0
        }
      },
      {
        "Sequence": {
          "id": "A",
          "type_id": 0
        }
      },
      {
        "SpecialToken": {
          "id": "[SEP]",
          "type_id": 0
        }
      },
      {
        "Sequence": {
          "id": "B",
          "type_id": 0
        }
      },
      {
        "SpecialToken": {
          "id": "[EOS]",
          "type_id": 0
        }
      }
    ],
    "special_tokens": {
      "[BOS]": {
        "id": "[BOS]",
        "ids": [
          2
        ],
        "tokens": [
          "[BOS]"
        ]
      },
      "[EOS]": {
        "id": "[EOS]",
        "ids": [
          3
        ],
        "tokens": [
          "[EOS]"
        ]
      },
      "[SEP]": {
        "id": "[SEP]",
        "ids": [
          7
        ],
        "tokens": [
          "[SEP]"
        ]
      }
    }
  },
  "decoder": {
    "type": "ByteLevel",
    "add_prefix_space": true,
    "trim_offsets": true,
    "use_regex": true
  },
  "model": {
    "type": "BPE",
    "dropout": null,
    "unk_token": "[UNK]",
    "continuing_subword_prefix": null,
    "end_of_word_suffix": null,
    "fuse_unk": false,
    "byte_fallback": false,
    "ignore_merges": false,
    "vocab": {
      "[PAD]": 0,
      "[UNK]": 1,
      "[BOS]": 2,
      "[EOS]": 3,
      "[SYS]": 4,
      "[USR]": 5,
      "[ASS]": 6,
      "[SEP]": 7,
      "!": 8,
      "\"": 9,
      "#": 10,
      "%": 11,
      "'": 12,
      "(": 13,
      ")": 14,
      "*": 15,
      "+": 16,
      ",": 17,
      "-": 18,
      ".": 19,
      "/": 20,
      "0": 21,
      "1": 22,
      "2": 23,
      "3": 24,
      "4": 25,
      "5": 26,
      "6": 27,
      "7": 28,
      "8": 29,
      "9": 30,
      ":": 31,
      ";": 32,
      "<": 33,
      "=": 34,
      ">": 35,
      "?": 36,
      "A": 37,
      "B": 38,
      "C": 39,
      "D": 40,
      "E": 41,
      "F": 42,
      "G": 43,
      "H": 44,
      "I": 45,
      "J": 46,
      "K": 47,
      "L": 48,
      "M": 49,
      "N": 50,
      "O": 51,
      "P": 52,
      "Q": 53,
      "R": 54,
      "S": 55,
      "T": 56,
      "U": 57,
      "V": 58,
      "W": 59,
      "X": 60,
      "Y": 61,
      "[": 62,
      "]": 63,
      "_": 64,
      "`": 65,
      "a": 66,
      "b": 67,
      "c": 68,
      "d": 69,
      "e": 70,
      "f": 71,
      "g": 72,
      "h": 73,
      "i": 74,
      "j": 75,
      "k": 76,
      "l": 77,
      "m": 78,
      "n": 79,
      "o": 80,
      "p": 81,
      "q": 82,
      "r": 83,
      "s": 84,
      "t": 85,
      "u": 86,
      "v": 87,
      "w": 88,
      "x": 89,
      "y": 90,
      "z": 91,
      "{": 92,
      "}": 93,
      "¡": 94,
      "¢": 95,
      "£": 96,
      "§": 97,
      "©": 98,
      "ª": 99,
      "²": 100,
      "³": 101,
      "´": 102,
      "µ": 103,
      "º": 104,
      "Â": 105,
      "Ã": 106,
      "Ï": 107,
      "Ċ": 108,
      "Ġ": 109,
      "Ģ": 110,
      "ģ": 111,
      "ĥ": 112,
      "ī": 113,
      "ł": 114,
      "Ń": 115,
      "ra": 116,
      "Ġe": 117,
      "Ġc": 118,
      "te": 119,
      "Ġd": 120,
      "la": 121,
      "Ġa": 122,
      "or": 123,
      "on": 124,
      "Ġp": 125,
      "Ġ[": 126,
      "EP": 127,
      "SEP": 128,
      "da": 129,
      "Ġde": 130,
      "ti": 131,
      "Ġu": 132,
      "ma": 133,
      "el": 134,
      "ta": 135,
      "in": 136,
      "ri": 137,
      "me": 138,
      "Ġf": 139,
      "es": 140,
      "is": 141,
      "oc": 142,
      "ĠC": 143,
      "ig": 144,
      "nte": 145,
      "Ġo": 146,
      "qu": 147,
      "ss": 148,
      "Ġs": 149,
      "av": 150,
      "ĠV": 151,
      "ria": 152,
      "po": 153,
      "ĠU": 154,
      "ĠÃ": 155,
      "Ġpe": 156,
      "ĠM": 157,
      "Ġcria": 158,
      "Ġ1": 159,
      "tra": 160,
      "ĠVoc": 161,
      "do": 162,
      "Ġfor": 163,
      "til": 164,
      "ĠF": 165,
      "iste": 166,
      "ĠD": 167,
      "Ġforma": 168,
      "tion": 169,
      "SS": 170,
      "Ġpela": 171,
      "lame": 172,
      "ini": 173,
      "Ġutil": 174,
      "ration": 175,
      "orpo": 176,
      "ĠCorpo": 177,
      "ĠCorporation": 178,
      "ĠFlame": 179,
      "Ġam": 180,
      "pon": 181,
      "lara": 182,
      "elta": 183,
      "ĠR": 184,
      "Ġass": 185,
      "Ġcriada": 186,
      "istente": 187,
      "ĠDelta": 188,
      "Ġassistente": 189,
      "espon": 190,
      "Ġamig": 191,
      "re": 192,
      "ltra": 193,
      "Ġclara": 194,
      "ĠUltra": 195,
      "ĠMini": 196,
      "ĠRespon": 197,
      "ASS": 198,
      "SR": 199,
      "SY": 200,
      "USR": 201,
      "avel": 202,
      "ĠVoce": 203,
      "Ġamigavel": 204,
      "ĠResponda": 205,
      "SYS": 206,
      "to": 207,
      "ĠÃ©": 208,
      "Ġqu": 209,
      "om": 210,
      "Ġque": 211,
      "Ġn": 212,
      "ro": 213,
      "Ã§": 214,
      "al": 215,
      "Ã¡": 216,
      "Ã£": 217,
      "Ġum": 218,
      "Ġpa": 219,
      "ĠO": 220,
      "Ã£o": 221,
      "er": 222,
      "Ġv": 223,
      "ca": 224,
      "Ġem": 225,
      "ar": 226,
      "de": 227,
      "ci": 228,
      "Ġl": 229,
      "Ġ`": 230,
      "Ãª": 231,
      "Ã³": 232,
      "Ġuma": 233,
      "``": 234,
      "Ã§Ã£o": 235,
      "Ġpara": 236,
      "Ġcom": 237,
      "ĠP": 238,
      "as": 239,
      "em": 240,
      "en": 241,
      "lo": 242,
      "ica": 243,
      "Ġno": 244,
      "Ġb": 245,
      "le": 246,
      "Ġre": 247,
      "an": 248,
      "men": 249,
      "ĠĠ": 250,
      "Ġes": 251,
      "ĠE": 252,
      "Ġin": 253,
      "Ġte": 254,
      "os": 255,
      "Ġ(": 256,
      "omo": 257,
      "ado": 258,
      "Ġpro": 259,
      "Ġex": 260,
      "Ġus": 261,
      "un": 262,
      "dor": 263,
      "gra": 264,
      "tu": 265,
      "Ġou": 266,
      "Ġcon": 267,
      "th": 268,
      "tr": 269,
      "ĠComo": 270,
      "Ġm": 271,
      "Ġdo": 272,
      "Ġpo": 273,
      "yth": 274,
      "Ġse": 275,
      "ython": 276,
      "it": 277,
      "Ã³d": 278,
      "if": 279,
      "pe": 280,
      "iz": 281,
      "```": 282,
      "ĠcÃ³d": 283,
      "ĠcÃ³dig": 284,
      "ha": 285,
      "Ġma": 286,
      "ol": 287,
      "emp": 288,
      "ĠcÃ³digo": 289,
      "ĠJ": 290,
      "ĠA": 291,
      "emplo": 292,
      "Ġ\"": 293,
      "`.": 294,
      "co": 295,
      "ocÃª": 296,
      "ĠvocÃª": 297,
      "ĠPython": 298,
      "ing": 299,
      "cri": 300,
      "im": 301,
      "Ġco": 302,
      "grama": 303,
      "vi": 304,
      "rio": 305,
      "ÃŃ": 306,
      "pt": 307,
      "Ġpr": 308,
      "ĠS": 309,
      "Ġprograma": 310,
      "cript": 311,
      "Qu": 312,
      "Ġta": 313,
      "ĠQu": 314,
      "Ã©": 315,
      "Ġdi": 316,
      "tos": 317,
      "ndo": 318,
      "Ġfa": 319,
      "ifica": 320,
      "ve": 321,
      "ĠH": 322,
      "Ġar": 323,
      "Ġpode": 324,
      "Ãº": 325,
      "ign": 326,
      "Ġcomp": 327,
      "cu": 328,
      "ados": 329,
      "je": 330,
      "ua": 331,
      "ui": 332,
      "mente": 333,
      "ĠĠĠ": 334,
      "µes": 335,
      "Ãµes": 336,
      "Ġpor": 337,
      "Script": 338,
      "ada": 339,
      "rm": 340,
      "Ġen": 341,
      "Ġdes": 342,
      "ava": 343,
      "ĠVocÃª": 344,
      "ite": 345,
      "pl": 346,
      "qui": 347,
      "di": 348,
      "res": 349,
      "Ġso": 350,
      "cion": 351,
      "tru": 352,
      "ĠJava": 353,
      "tÃ¡": 354,
      "Ġ=": 355,
      "ĠHT": 356,
      "ignifica": 357,
      "ML": 358,
      "ho": 359,
      "lÃ¡": 360,
      "ĠG": 361,
      "dar": 362,
      "Ġser": 363,
      "Ġsignifica": 364,
      "Ġinte": 365,
      "nci": 366,
      "Ġdados": 367,
      "mero": 368,
      "ĠJavaScript": 369,
      "Ġda": 370,
      "Ġfun": 371,
      "ĠHTML": 372,
      "li": 373,
      "ĠN": 374,
      "tar": 375,
      "ĠEx": 376,
      "ĠGit": 377,
      ").": 378,
      "ara": 379,
      "ge": 380,
      "ando": 381,
      "tura": 382,
      "ul": 383,
      "ver": 384,
      "Ã§Ãµes": 385,
      "Ġlin": 386,
      "ĠExemplo": 387,
      "oo": 388,
      "vol": 389,
      "Ġal": 390,
      "Ġseu": 391,
      "ju": 392,
      "mo": 393,
      "so": 394,
      "vel": 395,
      "xto": 396,
      "ĠI": 397,
      "dade": 398,
      "Ġaju": 399,
      "ĠUm": 400,
      "ĠnÃº": 401,
      "envol": 402,
      "trutura": 403,
      "ĠnÃºmero": 404,
      "()": 405,
      "vo": 406,
      "ĠB": 407,
      "ĠprogramaÃ§Ã£o": 408,
      "ĠQual": 409,
      "gem": 410,
      "Ġ2": 411,
      "Ġcriar": 412,
      "pera": 413,
      "Ġfaz": 414,
      "ecu": 415,
      "mento": 416,
      "Ġestrutura": 417,
      "Ġexemplo": 418,
      "Ġexecu": 419,
      "Ġdesenvol": 420,
      "dos": 421,
      "Ġna": 422,
      "ncia": 423,
      "bu": 424,
      "ce": 425,
      "ente": 426,
      "he": 427,
      "sta": 428,
      "Ġ'": 429,
      "Ġme": 430,
      "Ġsiste": 431,
      "ĠÃī": 432,
      "Ġmais": 433,
      "uito": 434,
      "si": 435,
      "tre": 436,
      "ĠT": 437,
      "Ġas": 438,
      "tador": 439,
      "Ġpar": 440,
      "Ġsistema": 441,
      "int": 442,
      "ĠCSS": 443,
      "Ġob": 444,
      "ĠnÃ£o": 445,
      "tring": 446,
      "Ġajudar": 447,
      "ere": 448,
      "ib": 449,
      "ir": 450,
      "tro": 451,
      "ista": 452,
      "Ã§a": 453,
      "Ġcomo": 454,
      "ĠfunÃ§Ã£o": 455,
      "ĠNo": 456,
      "con": 457,
      "fi": 458,
      "gu": 459,
      "pa": 460,
      "pi": 461,
      "se": 462,
      "lar": 463,
      "sso": 464,
      "Ġsim": 465,
      "ref": 466,
      "alor": 467,
      "Ãªncia": 468,
      "ĠPara": 469,
      "Ġusar": 470,
      "ingua": 471,
      "Ġcomen": 472,
      "no": 473,
      "tÃ©": 474,
      "ual": 475,
      "Ġva": 476,
      "gin": 477,
      "ne": 478,
      "pu": 479,
      "Ġh": 480,
      "Ġi": 481,
      "Ġor": 482,
      "Ġtra": 483,
      "Ġres": 484,
      "ten": 485,
      "Ġdif": 486,
      "mando": 487,
      "tamente": 488,
      "Ġopera": 489,
      "Ġloo": 490,
      "Ġnome": 491,
      "Ġcomando": 492,
      "Ġdia": 493,
      "plica": 494,
      "Ġfazer": 495,
      "inguagem": 496,
      "Ġloop": 497,
      "ais": 498,
      "ft": 499,
      "for": 500,
      "ja": 501,
      "Ġap": 502,
      "Ġperm": 503,
      "Ã¡gin": 504,
      "ĠOlÃ¡": 505,
      "Ġve": 506,
      "Ġvalor": 507,
      "Ġlista": 508,
      "Ġterm": 509,
      "Ġtexto": 510,
      "Ġmuito": 511,
      "ples": 512,
      "ĠcomentÃ¡": 513,
      "Ġdifere": 514,
      "</": 515,
      "ad": 516,
      "ck": 517,
      "der": 518,
      "nÃ§a": 519,
      "por": 520,
      "python": 521,
      "tri": 522,
      "Ġge": 523,
      "Ġos": 524,
      "Ġutiliz": 525,
      "Ã¡vel": 526,
      "dores": 527,
      "Ġsimples": 528,
      "us": 529,
      "Ġ3": 530,
      "Ġw": 531,
      "Ġho": 532,
      "tera": 533,
      "ĠpÃ¡gin": 534,
      "Ã¡rio": 535,
      "Ġ`<": 536,
      "ĠPor": 537,
      "Ġban": 538,
      "mentos": 539,
      "ĠestÃ¡": 540,
      "Ġproje": 541,
      "undo": 542,
      "Ġarqui": 543,
      "Ġentre": 544,
      "Ġsoft": 545,
      "Ġserve": 546,
      "Ġlinha": 547,
      "Ġsoftw": 548,
      "loc": 549,
      "Ġer": 550,
      "Ġele": 551,
      "rig": 552,
      "ntes": 553,
      "Ã³rio": 554,
      "anto": 555,
      "tual": 556,
      "ĠJS": 557,
      "Ġcompu": 558,
      "Ġaltera": 559,
      "fici": 560,
      ">`": 561,
      "eb": 562,
      "js": 563,
      "na": 564,
      "sit": 565,
      "va": 566,
      "Ġra": 567,
      "Ġto": 568,
      "Ġmen": 569,
      "Ġcor": 570,
      "inal": 571,
      "ave": 572,
      "ĠVe": 573,
      "posit": 574,
      "ĠUma": 575,
      "ĠMe": 576,
      "Ġlinguagem": 577,
      "Ġbas": 578,
      "Ġbloc": 579,
      "Ġreposit": 580,
      "ĠEs": 581,
      "Ġusando": 582,
      "()`.": 583,
      "Ġdesenvolvi": 584,
      "Ġvari": 585,
      "Ġvez": 586,
      "ĠcomentÃ¡rio": 587,
      "Ġweb": 588,
      "Ġerro": 589,
      "Ġcomputador": 590,
      "00": 591,
      "are": 592,
      "bo": 593,
      "ch": 594,
      "gi": 595,
      "has": 596,
      "ote": 597,
      "sar": 598,
      "ts": 599,
      "Ġ+": 600,
      "Ġ<": 601,
      "Ġg": 602,
      "Ġ{": 603,
      "Ġdu": 604,
      "las": 605,
      "das": 606,
      "tivo": 607,
      "tas": 608,
      "sse": 609,
      "den": 610,
      "Ġloc": 611,
      "end": 612,
      "Ġtem": 613,
      "Ġten": 614,
      "Ġmo": 615,
      "izar": 616,
      "Ġtag": 617,
      "Ġtaref": 618,
      "Ġdire": 619,
      "cional": 620,
      "liote": 621,
      "Ġobje": 622,
      "ibliote": 623,
      "Ġpermite": 624,
      "iblioteca": 625,
      "ON": 626,
      "du": 627,
      "go": 628,
      "oa": 629,
      "Ġ5": 630,
      "ĠL": 631,
      "ter": 632,
      "texto": 633,
      "man": 634,
      "Ġfo": 635,
      "esso": 636,
      "Ġsu": 637,
      "ĠÃº": 638,
      "Ġqual": 639,
      "Ġvis": 640,
      "Ġver": 641,
      "Ġbiblioteca": 642,
      "Ġusado": 643,
      "Ġconver": 644,
      "Ġposso": 645,
      "impor": 646,
      "ĠprÃ³": 647,
      "Ġfaci": 648,
      "Ġinter": 649,
      "Ġdesenvolve": 650,
      "Ġoperador": 651,
      "ĠdiferenÃ§a": 652,
      "Ġbanco": 653,
      "ĠJSON": 654,
      "ĠVeja": 655,
      "ĠrepositÃ³rio": 656,
      "(\"": 657,
      "OlÃ¡": 658,
      "ei": 659,
      "ht": 660,
      "ima": 661,
      "iro": 662,
      "ico": 663,
      "ou": 664,
      "ode": 665,
      "per": 666,
      "uÃ¡rio": 667,
      "Ġ8": 668,
      "Ġr": 669,
      "Ġon": 670,
      "Ġti": 671,
      "Ġig": 672,
      "Ġdis": 673,
      "rios": 674,
      "Ġstring": 675,
      "ĠÃł": 676,
      "Ãªs": 677,
      "let": 678,
      "ĠEle": 679,
      "ull": 680,
      "ĠInte": 681,
      "Ġterminal": 682,
      "Ġsoftware": 683,
      "Ġlocal": 684,
      "Ġfacili": 685,
      "Ġigual": 686,
      "\")": 687,
      "QL": 688,
      "ack": 689,
      "be": 690,
      "como": 691,
      "cha": 692,
      "ron": 693,
      "ub": 694,
      "zen": 695,
      "Ġca": 696,
      "tes": 697,
      "Ġac": 698,
      "Ġao": 699,
      "Ġaplica": 700,
      "Ġdec": 701,
      "mazen": 702,
      "que": 703,
      "quer": 704,
      "Ġsua": 705,
      "Ġper": 706,
      "tou": 707,
      "Ġpad": 708,
      "ĠlÃ³": 709,
      "endo": 710,
      "Ġrepe": 711,
      "ĠEm": 712,
      "Ġusada": 713,
      "ĠSe": 714,
      "Ġarmazen": 715,
      "ĠBoa": 716,
      "Ġarquivo": 717,
      "ficial": 718,
      "Ġbloco": 719,
      "ĠvariÃ¡vel": 720,
      "Ġvezes": 721,
      "Ġdiretamente": 722,
      "\":": 723,
      "),": 724,
      "bal": 725,
      "fa": 726,
      "fini": 727,
      "fica": 728,
      "lig": 729,
      "ml": 730,
      "nica": 731,
      "pres": 732,
      "sa": 733,
      "tor": 734,
      "xima": 735,
      "³ti": 736,
      "Ġtr": 737,
      "ras": 738,
      "ray": 739,
      "Ġpla": 740,
      "tica": 741,
      "mar": 742,
      "tal": 743,
      "tado": 744,
      "ine": 745,
      "Ġsa": 746,
      "ĠÃ³ti": 747,
      "erra": 748,
      "ĠvÃ¡": 749,
      "ĠbÃ¡": 750,
      "ĠEu": 751,
      "Ġ(`": 752,
      "ĠusuÃ¡rio": 753,
      "Ġconte": 754,
      "Ġcondi": 755,
      "ĠAtÃ©": 756,
      "Ġprin": 757,
      "Ġintera": 758,
      "ĠnÃºmeros": 759,
      "ĠexecuÃ§Ã£o": 760,
      "nome": 761,
      "pura": 762,
      "tribu": 763,
      "Ġpadr": 764,
      "\",": 765,
      "Hub": 766,
      "ble": 767,
      "cos": 768,
      "gen": 769,
      "hi": 770,
      "har": 771,
      "idade": 772,
      "pri": 773,
      "sÃ£o": 774,
      "um": 775,
      "Ġ0": 776,
      "Ġcha": 777,
      "Ġab": 778,
      "Ġaqui": 779,
      "Ġpri": 780,
      "ĠMar": 781,
      "Ġquando": 782,
      "Ã§o": 783,
      "Ġnoite": 784,
      "Ġtec": 785,
      "graf": 786,
      "ĠmÃ©": 787,
      "Ġmundo": 788,
      "izado": 789,
      "Ġprint": 790,
      "Ġarray": 791,
      "Ġfuncion": 792,
      "ĠGitHub": 793,
      "Ġlinhas": 794,
      "sole": 795,
      "bug": 796,
      "Ġobrig": 797,
      "forma": 798,
      "Ġgera": 799,
      "Ġgere": 800,
      "ĠpÃ¡gina": 801,
      "Ġprojeto": 802,
      "ĠalteraÃ§Ãµes": 803,
      "Ġdesenvolvimento": 804,
      "Ġtarefas": 805,
      "Ġqualquer": 806,
      "import": 807,
      "Ġdeclara": 808,
      "Ġrepeti": 809,
      "Ġprinci": 810,
      "//": 811,
      "bi": 812,
      "bre": 813,
      "gica": 814,
      "gan": 815,
      "git": 816,
      "gua": 817,
      "hos": 818,
      "io": 819,
      "ira": 820,
      "jun": 821,
      "pal": 822,
      "vos": 823,
      "Ġ4": 824,
      "ĠW": 825,
      "ran": 826,
      "Ġeu": 827,
      "Ġch": 828,
      "Ġcara": 829,
      "Ġdoc": 830,
      "laro": 831,
      "lasse": 832,
      "Ġan": 833,
      "taÃ§Ã£o": 834,
      "ina": 835,
      "inu": 836,
      "Ġferra": 837,
      "ĠClaro": 838,
      "quÃªncia": 839,
      "ĠsÃ£o": 840,
      "rias": 841,
      "Ġ15": 842,
      "ĠDe": 843,
      "ren": 844,
      "Ã¡graf": 845,
      "Ġvir": 846,
      "caten": 847,
      "Ġle": 848,
      "Ġ`.": 849,
      "Ġrela": 850,
      "Ġreal": 851,
      "Ġremo": 852,
      "Ġestil": 853,
      "Ġespa": 854,
      "Ġproble": 855,
      "Ġuse": 856,
      "tur": 857,
      "ĠsequÃªncia": 858,
      "Ġman": 859,
      "Ġproc": 860,
      "ĠSQL": 861,
      "Ġcomple": 862,
      "dicion": 863,
      "Ġintelig": 864,
      "Ġlink": 865,
      "Ġexecutar": 866,
      "head": 867,
      "sion": 868,
      "ĠparÃ¡graf": 869,
      "ĠNode": 870,
      "Ġorgan": 871,
      "Ġtrabal": 872,
      "tend": 873,
      "Ġhoje": 874,
      "ĠpÃ¡ginas": 875,
      "json": 876,
      "Ġmenor": 877,
      "Ġbase": 878,
      "Ġmod": 879,
      "Ġobjeto": 880,
      "Ġsuas": 881,
      "Ġvisual": 882,
      "ĠprÃ³xima": 883,
      "html": 884,
      "Ġonde": 885,
      "rontend": 886,
      "ĠlÃ³gica": 887,
      "face": 888,
      "gens": 889,
      "hile": 890,
      "ĠmÃ©to": 891,
      "ĠrepetiÃ§Ã£o": 892,
      "biente": 893,
      "Ġcarac": 894,
      "Ġdocu": 895,
      "Ġferramen": 896,
      "Ġvirtual": 897,
      "Ġproblema": 898,
      "PI": 899,
      "`)": 900,
      "ct": 901,
      "cre": 902,
      "cÃŃ": 903,
      "fe": 904,
      "ga": 905,
      "ior": 906,
      "pr": 907,
      "pas": 908,
      "rface": 909,
      "sica": 910,
      "ug": 911,
      "ulo": 912,
      "umero": 913,
      "var": 914,
      "while": 915,
      "xtos": 916,
      "ype": 917,
      "zul": 918,
      "Ġ6": 919,
      "Ġ9": 920,
      "Ġla": 921,
      "Ġro": 922,
      "Ġequi": 923,
      "lav": 924,
      "Ġatual": 925,
      "orre": 926,
      "Ġpesso": 927,
      "Ġdepura": 928,
      "tificial": 929,
      "elo": 930,
      "tack": 931,
      "essar": 932,
      "ĠsÃ³": 933,
      "Ġsem": 934,
      "Ġsite": 935,
      "avas": 936,
      "ĠÃ¡": 937,
      "ĠMuito": 938,
      "dow": 939,
      "ĠFico": 940,
      "ĠDes": 941,
      "rec": 942,
      "Ġquad": 943,
      "Ġnave": 944,
      "roun": 945,
      "Ã¡pi": 946,
      "Ġpalav": 947,
      "enta": 948,
      "enas": 949,
      "log": 950,
      "Ġrecu": 951,
      "Ġretor": 952,
      "Ġespe": 953,
      "ĠEla": 954,
      "Ġins": 955,
      "Ġinsta": 956,
      "Ġter": 957,
      "Ġtextos": 958,
      "Ġpropri": 959,
      "Ġexc": 960,
      "Ġusa": 961,
      "Ġcontro": 962,
      "Ġconcaten": 963,
      "Ġposs": 964,
      "ĠAqui": 965,
      "ĠAPI": 966,
      "ÃŃci": 967,
      "ÃŃvel": 968,
      "ĠStack": 969,
      "ĠQuanto": 970,
      "Ġcompi": 971,
      "Ġservi": 972,
      "ulta": 973,
      "ĠTcha": 974,
      "Ġaspas": 975,
      "Ġparte": 976,
      "Ġorden": 977,
      "Ġapren": 978,
      "Ġapenas": 979,
      "duz": 980,
      "ĠrÃ¡pi": 981,
      "Ġtipo": 982,
      "ackend": 983,
      "ĠvÃ¡rias": 984,
      "ĠbÃ¡sica": 985,
      "ĠpadrÃ£o": 986,
      "Ġobrigado": 987,
      "Ġprincipal": 988,
      "turn": 989,
      "ĠparÃ¡grafo": 990,
      "ĠmÃ©todo": 991,
      "Ġcaracte": 992,
      "print": 993,
      "avascript": 994,
      "Ġquadra": 995,
      "Ġnavega": 996,
      "round": 997,
      "Ġproprie": 998,
      "ĠTchau": 999,
      "!\")": 1000,
      "DE": 1001,
      "String": 1002,
      "at": 1003,
      "bÃ©": 1004,
      "dy": 1005,
      "des": 1006,
      "fon": 1007,
      "gl": 1008,
      "gor": 1009,
      "gun": 1010,
      "hÃ£": 1011,
      "jo": 1012,
      "javascript": 1013,
      "lu": 1014,
      "ntro": 1015,
      "plas": 1016,
      "rde": 1017,
      "sel": 1018,
      "udo": 1019,
      "vem": 1020,
      "xe": 1021,
      "Ġ7": 1022,
      "Ġgra": 1023,
      "Ġite": 1024,
      "rame": 1025,
      "rasi": 1026,
      "Ġcal": 1027,
      "Ġcol": 1028,
      "ĠclÃ¡": 1029,
      "Ġclasse": 1030,
      "Ġdos": 1031,
      "lador": 1032,
      "Ġau": 1033,
      "ĠatÃ©": 1034,
      "Ġadicion": 1035,
      "orta": 1036,
      "ons": 1037,
      "Ġprec": 1038,
      "Ġdef": 1039,
      "Ġdentro": 1040,
      "elente": 1041,
      "tando": 1042,
      "taxe": 1043,
      "inha": 1044,
      "intaxe": 1045,
      "rir": 1046,
      "ist": 1047,
      "isar": 1048,
      "ocar": 1049,
      "ĠCode": 1050,
      "quanto": 1051,
      "Ġsintaxe": 1052,
      "red": 1053,
      "Ã¡qu": 1054,
      "erto": 1055,
      "can": 1056,
      "ĠPro": 1057,
      "asca": 1058,
      "lean": 1059,
      "Ġrepres": 1060,
      "Ġreturn": 1061,
      "angua": 1062,
      "ment": 1063,
      "Ġestu": 1064,
      "Ġinfini": 1065,
      "ĠinÃŃci": 1066,
      "Ġingl": 1067,
      "Ġtela": 1068,
      "Ġexib": 1069,
      "tulo": 1070,
      "Ġconsta": 1071,
      "ĠmÃ³d": 1072,
      "Ġdois": 1073,
      "Ġsegu": 1074,
      "iza": 1075,
      "Ġmaior": 1076,
      "vidi": 1077,
      "ÃŃr": 1078,
      "ÃŃdo": 1079,
      "ÃŃtulo": 1080,
      "Ġpron": 1081,
      "Ġtarde": 1082,
      "veis": 1083,
      "Ġcomporta": 1084,
      "Ġenquanto": 1085,
      "Ġsobre": 1086,
      "oolean": 1087,
      "Ġalgor": 1088,
      "ĠIDE": 1089,
      "Ġajuda": 1090,
      "ĠBrasi": 1091,
      "Ġexecuta": 1092,
      "Ġtraduz": 1093,
      "Ġresol": 1094,
      "Ġtermo": 1095,
      "Ġdiferentes": 1096,
      "Ġprojetos": 1097,
      "Ġarquivos": 1098,
      "body": 1099,
      "Ġgos": 1100,
      "Ġtempo": 1101,
      "ĠLangua": 1102,
      "Ġfoi": 1103,
      "ĠÃºnica": 1104,
      "ĠIntegra": 1105,
      "Ġfacilitar": 1106,
      "Ġpergun": 1107,
      "Ġarmazena": 1108,
      "ĠcondiÃ§Ã£o": 1109,
      "tribuÃŃdo": 1110,
      "ĠMark": 1111,
      "Ġgerenci": 1112,
      "junto": 1113,
      "ĠinteligÃªncia": 1114,
      "Ġmodifica": 1115,
      "Ġequipe": 1116,
      "ĠespecÃŃ": 1117,
      "Ġexcelente": 1118,
      "Ġcontrole": 1119,
      "ĠinÃŃcio": 1120,
      "ĠinglÃªs": 1121,
      "ĠmÃ³dulo": 1122,
      "Ġalgorit": 1123,
      "ĠBrasil": 1124,
      "ĠLanguage": 1125,
      "\">": 1126,
      "\"?": 1127,
      ")`": 1128,
      "*/": 1129,
      "/*": 1130,
      "=\"": 1131,
      ">`.": 1132,
      "AR": 1133,
      "Linguagem": 1134,
      "PM": 1135,
      "ction": 1136,
      "com": 1137,
      "ding": 1138,
      "ex": 1139,
      "flo": 1140,
      "gle": 1141,
      "il": 1142,
      "ix": 1143,
      "iti": 1144,
      "ipu": 1145,
      "lmente": 1146,
      "mÃ¡": 1147,
      "mit": 1148,
      "mbÃ©": 1149,
      "nto": 1150,
      "numero": 1151,
      "ot": 1152,
      "pre": 1153,
      "pend": 1154,
      "tÃŃtulo": 1155,
      "uz": 1156,
      "ula": 1157,
      "wor": 1158,
      "yle": 1159,
      "Ġis": 1160,
      "Ġini": 1161,
      "Ġim": 1162,
      "rar": 1163,
      "ranÃ§a": 1164,
      "Ġcu": 1165,
      "ĠdÃ¡": 1166,
      "Ġdar": 1167,
      "Ġdica": 1168,
      "Ġdado": 1169,
      "Ġaman": 1170,
      "Ġpelo": 1171,
      "damente": 1172,
      "dades": 1173,
      "tiva": 1174,
      "magens": 1175,
      "ello": 1176,
      "eliz": 1177,
      "taforma": 1178,
      "rico": 1179,
      "Ġfon": 1180,
      "Ġfal": 1181,
      "Ġfui": 1182,
      "Ġfei": 1183,
      "Ġframe": 1184,
      "Ġfeliz": 1185,
      "ĠCom": 1186,
      "Ġsi": 1187,
      "Ġsendo": 1188,
      "posta": 1189,
      "ĠMundo": 1190,
      "Ġ10": 1191,
      "Ġ12": 1192,
      "tras": 1193,
      "Ġformato": 1194,
      "Ġambiente": 1195,
      "ĠRe": 1196,
      "ĠamigÃ¡vel": 1197,
      "ĠOb": 1198,
      "ares": 1199,
      "Ġluz": 1200,
      "Ġ`\"": 1201,
      "ĠPode": 1202,
      "ash": 1203,
      "los": 1204,
      "logi": 1205,
      "Ġbug": 1206,
      "Ġbot": 1207,
      "Ġregra": 1208,
      "Ġreco": 1209,
      "Ġint": 1210,
      "Ġinde": 1211,
      "Ġprodu": 1212,
      "tugu": 1213,
      "Ġconjunto": 1214,
      "trl": 1215,
      "ĠmÃ¡qu": 1216,
      "Ġseg": 1217,
      "ĠcÃ³digos": 1218,
      "Ġcola": 1219,
      "ĠSim": 1220,
      "Ġprogramadores": 1221,
      "ĠtambÃ©": 1222,
      "ĠQue": 1223,
      "Ġdividi": 1224,
      "Ġartificial": 1225,
      "Ġenvi": 1226,
      "Ġdesign": 1227,
      "Ġsou": 1228,
      "Ġsoma": 1229,
      "Ġsolar": 1230,
      "Ġinteiro": 1231,
      "ĠNPM": 1232,
      "oogle": 1233,
      "ĠIsso": 1234,
      "()`": 1235,
      "Ġ200": 1236,
      "heci": 1237,
      "Ġmes": 1238,
      "Ġmeu": 1239,
      "Ġsistemas": 1240,
      "tros": 1241,
      "console": 1242,
      "nologi": 1243,
      "Ġimagens": 1244,
      "Ġoperacional": 1245,
      "Ġpermiti": 1246,
      "Ġvalores": 1247,
      "Ġutiliza": 1248,
      "Ġhoras": 1249,
      "Ġsoftwares": 1250,
      "Ġelementos": 1251,
      "Ġtodo": 1252,
      "Ġcores": 1253,
      "Ġcorrig": 1254,
      "ĠMeu": 1255,
      "Ġbasta": 1256,
      "ĠEstou": 1257,
      "Ġerros": 1258,
      "Ġduas": 1259,
      "Ġtenha": 1260,
      "Ġtarefa": 1261,
      "Ġfora": 1262,
      "Ġverdade": 1263,
      "ĠversÃ£o": 1264,
      "Ġbibliotecas": 1265,
      "Ġdesenvolvedor": 1266,
      "Ġstrings": 1267,
      "Ġaplicativo": 1268,
      "ficar": 1269,
      "Ġplane": 1270,
      "Ġplataforma": 1271,
      "Ġsabe": 1272,
      "ĠÃ³timo": 1273,
      "Ġchama": 1274,
      "Ġprimo": 1275,
      "Ġtecnologi": 1276,
      "Ġdeclarar": 1277,
      "Ġleve": 1278,
      "Ġremoto": 1279,
      "Ġestilo": 1280,
      "Ġmanipu": 1281,
      "Ġcompleto": 1282,
      "Ġlinks": 1283,
      "Ġtrabalho": 1284,
      "Ġferramentas": 1285,
      "Ġ64": 1286,
      "Ġretorna": 1287,
      "Ġinstru": 1288,
      "Ġconcatenar": 1289,
      "Ġcompilador": 1290,
      "Ġservidor": 1291,
      "Ġordenada": 1292,
      "Ġnavegador": 1293,
      "fonte": 1294,
      "ĠclÃ¡ss": 1295,
      "Ġauto": 1296,
      "istÃ³": 1297,
      "Ġrepresenta": 1298,
      "Ġinfinito": 1299,
      "Ġconstante": 1300,
      "Ġgerenciar": 1301,
      "ĠespecÃŃfica": 1302,
      "pretador": 1303,
      "work": 1304,
      "ĠamanhÃ£": 1305,
      "Ġframework": 1306,
      "Ġregras": 1307,
      "Ġrecomen": 1308,
      "ĠtambÃ©m": 1309,
      "Ġdividido": 1310,
      "\";": 1311,
      "):": 1312,
      ");": 1313,
      ")?": 1314,
      "..": 1315,
      "14": 1316,
      ";`": 1317,
      "==": 1318,
      "Ctrl": 1319,
      "EA": 1320,
      "Inte": 1321,
      "`).": 1322,
      "dizado": 1323,
      "ets": 1324,
      "fun": 1325,
      "hor": 1326,
      "itar": 1327,
      "ld": 1328,
      "lti": 1329,
      "mos": 1330,
      "ns": 1331,
      "op": 1332,
      "oma": 1333,
      "px": 1334,
      "plame": 1335,
      "rs": 1336,
      "rom": 1337,
      "st": 1338,
      "ste": 1339,
      "string": 1340,
      "tle": 1341,
      "tyle": 1342,
      "udar": 1343,
      "ww": 1344,
      "you": 1345,
      "Ġ}": 1346,
      "Ġoc": 1347,
      "Ġimpor": 1348,
      "Ġefici": 1349,
      "Ġcada": 1350,
      "ted": 1351,
      "Ġdig": 1352,
      "ĠdÃº": 1353,
      "lass": 1354,
      "Ġatra": 1355,
      "Ġazul": 1356,
      "orld": 1357,
      "tida": 1358,
      "timentos": 1359,
      "title": 1360,
      "ele": 1361,
      "elhor": 1362,
      "tation": 1363,
      "indow": 1364,
      "Ġfoc": 1365,
      "Ġfim": 1366,
      "espera": 1367,
      "ĠCasca": 1368,
      "igo": 1369,
      "Ġoficial": 1370,
      "quem": 1371,
      "Ġsen": 1372,
      "aves": 1373,
      "ĠVS": 1374,
      "posi": 1375,
      "ĠUs": 1376,
      "ĠÃŃ": 1377,
      "Ġcriando": 1378,
      "Ġforne": 1379,
      "ĠFull": 1380,
      "Ġamplame": 1381,
      "rea": 1382,
      "rem": 1383,
      "omp": 1384,
      "Ġnada": 1385,
      "Ã§os": 1386,
      "ale": 1387,
      "Ã¡veis": 1388,
      "Ġpass": 1389,
      "Ġpasta": 1390,
      "caÃ§Ã£o": 1391,
      "Ġembu": 1392,
      "artil": 1393,
      "Ġli": 1394,
      "Ġler": 1395,
      "Ġlei": 1396,
      "Ġ`/*": 1397,
      "Ãªnci": 1398,
      "Ġcomum": 1399,
      "Ġcomigo": 1400,
      "Ġnos": 1401,
      "Ġnovo": 1402,
      "Ġbem": 1403,
      "Ġbran": 1404,
      "Ġboolean": 1405,
      "leÃ§Ã£o": 1406,
      "Ġeste": 1407,
      "Ġescri": 1408,
      "Ġescre": 1409,
      "ĠEn": 1410,
      "ĠEsse": 1411,
      "Ġinforma": 1412,
      "Ġinespera": 1413,
      "Ġexa": 1414,
      "Ġoutras": 1415,
      "Ġconta": 1416,
      "Ġconheci": 1417,
      "Ġminu": 1418,
      "Ġmelhor": 1419,
      "Ġseja": 1420,
      "izada": 1421,
      "Ġmar": 1422,
      "Ġmas": 1423,
      "Ġmante": 1424,
      "olhas": 1425,
      "cotes": 1426,
      "ĠcoleÃ§Ã£o": 1427,
      "vidade": 1428,
      "ĠShe": 1429,
      "ĠStyle": 1430,
      "Ġprogramar": 1431,
      "Ġtaman": 1432,
      "Ġtabe": 1433,
      "ĠQuem": 1434,
      "Ġcompartil": 1435,
      "culo": 1436,
      "Ġportugu": 1437,
      "cionais": 1438,
      "ĠNa": 1439,
      "Ġalgo": 1440,
      "Ġseus": 1441,
      "Ġ25": 1442,
      "Ġestruturar": 1443,
      "nciador": 1444,
      "ceiro": 1445,
      "ĠTudo": 1446,
      "conte": 1447,
      "const": 1448,
      "guar": 1449,
      "pital": 1450,
      "net": 1451,
      "Ġhu": 1452,
      "ĠhistÃ³": 1453,
      "Ġidade": 1454,
      "Ġresto": 1455,
      "plicaÃ§Ã£o": 1456,
      "ĠcomentÃ¡rios": 1457,
      "Ġutilizada": 1458,
      "ush": 1459,
      "Ġ30": 1460,
      "Ġbancos": 1461,
      "Ġraiz": 1462,
      "Ġmensa": 1463,
      "Ġblocos": 1464,
      "Ġdesenvolvida": 1465,
      "ĠvariÃ¡veis": 1466,
      "chave": 1467,
      "Ġduplas": 1468,
      "Ġtenho": 1469,
      "Ġmoder": 1470,
      "Ġobjetos": 1471,
      "Ġconversar": 1472,
      "ĠprÃ³p": 1473,
      "Ġinternet": 1474,
      "Ġdesenvolvedores": 1475,
      "Ġdisposi": 1476,
      "Ġfacilitando": 1477,
      "Ġcapa": 1478,
      "Ġcapital": 1479,
      "ĠaplicaÃ§Ã£o": 1480,
      "Ġarmazenar": 1481,
      "ĠÃ³tima": 1482,
      "Ġchamar": 1483,
      "Ġaberto": 1484,
      "ĠWorld": 1485,
      "ĠWindow": 1486,
      "Ġchave": 1487,
      "Ġchaves": 1488,
      "inux": 1489,
      "ĠDevel": 1490,
      "Ġrealizar": 1491,
      "ĠespaÃ§os": 1492,
      "Ġdocumento": 1493,
      "ypeScript": 1494,
      "Ġlayou": 1495,
      "Ġrodar": 1496,
      "ĠÃ¡rea": 1497,
      "Ġpalavra": 1498,
      "Ġterceiro": 1499,
      "Ġcaracteres": 1500,
      "Ġquadrada": 1501,
      "Ġpropriedade": 1502,
      "self": 1503,
      "Ġitem": 1504,
      "Ġcalcu": 1505,
      "Ġprecisar": 1506,
      "Ġdefine": 1507,
      "Ġestudos": 1508,
      "Ġsegura": 1509,
      "Ġpronta": 1510,
      "Ġresolver": 1511,
      "Ġalgoritmo": 1512,
      "ixar": 1513,
      "Ġinici": 1514,
      "Ġsegui": 1515,
      "Ġpermitindo": 1516,
      "Ġcorrigir": 1517,
      "Ġtecnologia": 1518,
      "ĠinstruÃ§Ãµes": 1519,
      "Ġrecomenda": 1520,
      "Interface": 1521,
      "function": 1522,
      "Ġocorre": 1523,
      "Ġeficiente": 1524,
      "ĠdÃºvi": 1525,
      "Ġsentimentos": 1526,
      "Ġamplamente": 1527,
      "Ġembutida": 1528,
      "Ãªncias": 1529,
      "Ġminutos": 1530,
      "ĠSheets": 1531,
      "ĠWindows": 1532,
      "Ġlayouts": 1533,
      "!</": 1534,
      "\"\"": 1535,
      "\"`.": 1536,
      "'?": 1537,
      "12": 1538,
      "15": 1539,
      "://": 1540,
      "Am": 1541,
      "Delta": 1542,
      "Er": 1543,
      "OS": 1544,
      "SQL": 1545,
      "TP": 1546,
      "Tex": 1547,
      "`,": 1548,
      "azul": 1549,
      "bui": 1550,
      "ctu": 1551,
      "cnica": 1552,
      "corre": 1553,
      "class": 1554,
      "cOS": 1555,
      "dit": 1556,
      "ejo": 1557,
      "fis": 1558,
      "fal": 1559,
      "gir": 1560,
      "hado": 1561,
      "ic": 1562,
      "ita": 1563,
      "ito": 1564,
      "iper": 1565,
      "lista": 1566,
      "lhos": 1567,
      "nar": 1568,
      "nde": 1569,
      "ndi": 1570,
      "nge": 1571,
      "ps": 1572,
      "par": 1573,
      "pen": 1574,
      "para": 1575,
      "ror": 1576,
      "sor": 1577,
      "tps": 1578,
      "up": 1579,
      "util": 1580,
      "uvem": 1581,
      "vado": 1582,
      "vÃ©": 1583,
      "valor": 1584,
      "yper": 1585,
      "Ã¢": 1586,
      "Ġ%": 1587,
      "Ġtro": 1588,
      "Ġ*/": 1589,
      "ĠtÃŃtulo": 1590,
      "Ġguar": 1591,
      "rante": 1592,
      "raÃ§Ã£o": 1593,
      "rando": 1594,
      "Ġela": 1595,
      "Ġess": 1596,
      "Ġedit": 1597,
      "Ġcer": 1598,
      "Ġcas": 1599,
      "Ġcan": 1600,
      "ĠcÃŃr": 1601,
      "Ġdas": 1602,
      "Ġdiz": 1603,
      "Ġantes": 1604,
      "Ġatal": 1605,
      "Ġatribu": 1606,
      "Ġaconte": 1607,
      "one": 1608,
      "ongo": 1609,
      "Ġpra": 1610,
      "Ġpref": 1611,
      "Ġpull": 1612,
      "Ġpush": 1613,
      "Ġdeci": 1614,
      "Ġdefini": 1615,
      "Ġdevem": 1616,
      "Ġdepend": 1617,
      "tir": 1618,
      "mais": 1619,
      "mamente": 1620,
      "else": 1621,
      "tag": 1622,
      "tada": 1623,
      "inel": 1624,
      "inter": 1625,
      "rior": 1626,
      "rificar": 1627,
      "Ġfe": 1628,
      "ĠfÃ¡": 1629,
      "ĠfÃ³": 1630,
      "Ġfica": 1631,
      "Ġfrontend": 1632,
      "Ġflu": 1633,
      "ess": 1634,
      "ests": 1635,
      "ession": 1636,
      "isa": 1637,
      "isÃ£o": 1638,
      "ĠCons": 1639,
      "igla": 1640,
      "quests": 1641,
      "Ġsta": 1642,
      "Ġsal": 1643,
      "Ġstr": 1644,
      "Ġscript": 1645,
      "Ġsigla": 1646,
      "ĠMa": 1647,
      "Ġ100": 1648,
      "ĠFrontend": 1649,
      "rei": 1650,
      "reen": 1651,
      "Ġquanto": 1652,
      "Ġqueb": 1653,
      "Ġquer": 1654,
      "Ġne": 1655,
      "Ġnum": 1656,
      "Ġnuvem": 1657,
      "alhos": 1658,
      "Ã¡rios": 1659,
      "Ġpares": 1660,
      "Ġpacotes": 1661,
      "Ġpainel": 1662,
      "ĠOver": 1663,
      "ery": 1664,
      "Ġvol": 1665,
      "ĠvÃŃr": 1666,
      "debug": 1667,
      "cil": 1668,
      "cidade": 1669,
      "Ġlim": 1670,
      "Ġ`#": 1671,
      "Ġ`+": 1672,
      "Ġcomb": 1673,
      "Ġcomun": 1674,
      "Ġcommit": 1675,
      "ĠPa": 1676,
      "entra": 1677,
      "enha": 1678,
      "Ġnosso": 1679,
      "Ġbor": 1680,
      "lex": 1681,
      "ĠreÃº": 1682,
      "Ġreutil": 1683,
      "ana": 1684,
      "ĠĠĠĠ": 1685,
      "Ġesta": 1686,
      "Ġesco": 1687,
      "ospe": 1688,
      "Ġprofis": 1689,
      "Ġexiste": 1690,
      "Ġextre": 1691,
      "Ġuso": 1692,
      "unca": 1693,
      "doro": 1694,
      "gram": 1695,
      "tus": 1696,
      "Ġcontador": 1697,
      "Ġconse": 1698,
      "Ġconsole": 1699,
      "Ġmul": 1700,
      "Ġpois": 1701,
      "Ġpopu": 1702,
      "Ġpoder": 1703,
      "Ġsepara": 1704,
      "peri": 1705,
      "Ġmane": 1706,
      "ĠmacOS": 1707,
      "ĠAr": 1708,
      "cob": 1709,
      "gramaÃ§Ã£o": 1710,
      "vimento": 1711,
      "viron": 1712,
      "ÃŃs": 1713,
      "ĠprÃ©": 1714,
      "Ġpression": 1715,
      "ĠStru": 1716,
      "Ġtanto": 1717,
      "ĠQuan": 1718,
      "ĠQuery": 1719,
      "Ġdiv": 1720,
      "Ġdias": 1721,
      "ĠfaÃ§o": 1722,
      "ificaÃ§Ã£o": 1723,
      "Ġpodem": 1724,
      "Ãºdo": 1725,
      "Ġcompreen": 1726,
      "ject": 1727,
      "adas": 1728,
      "Ġdescan": 1729,
      "Ġdescob": 1730,
      "pli": 1731,
      "dia": 1732,
      "dioma": 1733,
      "Ġsomar": 1734,
      "ĠHTTP": 1735,
      "ĠGoogle": 1736,
      "Ġdate": 1737,
      "ultado": 1738,
      "ĠExemplos": 1739,
      "ĠIA": 1740,
      "envolvimento": 1741,
      "truturada": 1742,
      "ĠBackend": 1743,
      "perar": 1744,
      "ĠexecutÃ¡": 1745,
      "sico": 1746,
      "ĠTypeScript": 1747,
      "ĠTenha": 1748,
      "Ġpartir": 1749,
      "Ã§amentos": 1750,
      "ĠNotation": 1751,
      "ĠNoSQL": 1752,
      "gue": 1753,
      "Ġcomentar": 1754,
      "tÃ©cnica": 1755,
      "Ġvaz": 1756,
      "Ġhash": 1757,
      "Ġhospe": 1758,
      "Ġidioma": 1759,
      "Ġori": 1760,
      "Ġresulta": 1761,
      "Ġresultado": 1762,
      "Ġcomandos": 1763,
      "Ġverificar": 1764,
      "porte": 1765,
      "tribui": 1766,
      "Ġutilize": 1767,
      "Ġutilizando": 1768,
      "Ġhora": 1769,
      "Ġalterar": 1770,
      "Ġalterado": 1771,
      "Ġrange": 1772,
      "Ġtodos": 1773,
      "Ġcorre": 1774,
      "ĠEstruturada": 1775,
      "Ġcomputadores": 1776,
      "Ġ<<": 1777,
      "Ġdurante": 1778,
      "dentaÃ§Ã£o": 1779,
      "gora": 1780,
      "ĠLinux": 1781,
      "terna": 1782,
      "manos": 1783,
      "ĠÃºtil": 1784,
      "Ġconvers": 1785,
      "Ġconverter": 1786,
      "Ġinterpretador": 1787,
      "Ġdesenvolveu": 1788,
      "https": 1789,
      "Ġrespon": 1790,
      "Ġonl": 1791,
      "ĠdistribuÃŃdo": 1792,
      "ĠÃłs": 1793,
      "ĠInterface": 1794,
      "Ġacessar": 1795,
      "Ġacomp": 1796,
      "ĠlÃ³gi": 1797,
      "ĠtrÃ¡": 1798,
      "ĠtrÃªs": 1799,
      "Ġtrocar": 1800,
      "Ġsaudar": 1801,
      "ĠbÃ¡sico": 1802,
      "ĠconteÃºdo": 1803,
      "Ġcondicional": 1804,
      "Ġinterage": 1805,
      "Ġinteragir": 1806,
      "puraÃ§Ã£o": 1807,
      "ĠpadrÃµes": 1808,
      "Ġgerando": 1809,
      "Ġgeralmente": 1810,
      "Ġgerenciador": 1811,
      "Ġdeclarada": 1812,
      "Ġanal": 1813,
      "Ġ150": 1814,
      "Ġrelacional": 1815,
      "Ġrelacionais": 1816,
      "ĠespaÃ§amentos": 1817,
      "Ġprocesso": 1818,
      "Ġprocessar": 1819,
      "Ġorganizar": 1820,
      "Ġbaseada": 1821,
      "Ġferramenta": 1822,
      "Ġproblemas": 1823,
      "Ġpessoa": 1824,
      "Ġpessoas": 1825,
      "ĠdepuraÃ§Ã£o": 1826,
      "down": 1827,
      "ĠDesejo": 1828,
      "ĠDesenvolvimento": 1829,
      "Ġpalavras": 1830,
      "Ġrecurs": 1831,
      "Ġrecuperar": 1832,
      "Ġinstalar": 1833,
      "Ġpossui": 1834,
      "Ġaprender": 1835,
      "Ġaprendizado": 1836,
      "ĠrÃ¡pida": 1837,
      "ĠrÃ¡pido": 1838,
      "Ġcaractere": 1839,
      "Ġpropriedades": 1840,
      "Ġgratu": 1841,
      "Ġadicionar": 1842,
      "redon": 1843,
      "ĠProgram": 1844,
      "ĠProgramaÃ§Ã£o": 1845,
      "Ġexibir": 1846,
      "izaÃ§Ã£o": 1847,
      "Ġcomportamento": 1848,
      "Ġcomportamentos": 1849,
      "Ġgosta": 1850,
      "ĠIntegrado": 1851,
      "ĠIntegrated": 1852,
      "Ġperguntas": 1853,
      "ĠMarkup": 1854,
      "ĠMarkdown": 1855,
      "flow": 1856,
      "Ġisso": 1857,
      "Ġcujo": 1858,
      "Ġfontes": 1859,
      "Ġfalha": 1860,
      "ĠObject": 1861,
      "ĠbotÃµes": 1862,
      "Ġindex": 1863,
      "ĠmÃ¡quina": 1864,
      "Ġcolabo": 1865,
      "Ġenviar": 1866,
      "Ġmesmo": 1867,
      "Ġverdadeira": 1868,
      "Ġmanipula": 1869,
      "ĠclÃ¡ssico": 1870,
      "Ġautoma": 1871,
      "opment": 1872,
      "ĠatravÃ©": 1873,
      "ĠÃŃndi": 1874,
      "Ġpassos": 1875,
      "Ġleitura": 1876,
      "Ġbooleano": 1877,
      "Ġescrever": 1878,
      "ĠEnviron": 1879,
      "ĠinformaÃ§Ãµes": 1880,
      "Ġinesperado": 1881,
      "Ġtamanho": 1882,
      "Ġtabelas": 1883,
      "ĠportuguÃªs": 1884,
      "Ġhumanos": 1885,
      "ĠhistÃ³rico": 1886,
      "Ġmensagem": 1887,
      "ĠprÃ³prio": 1888,
      "Ġcapaz": 1889,
      "ĠDevelopment": 1890,
      "Ġterceiros": 1891,
      "Ġcalcular": 1892,
      "Ambiente": 1893,
      "Error": 1894,
      "Text": 1895,
      "ctured": 1896,
      "ipertexto": 1897,
      "yperText": 1898,
      "Ġtroquem": 1899,
      "Ġeditor": 1900,
      "ĠcÃŃrculo": 1901,
      "Ġatalho": 1902,
      "ĠdependÃªncias": 1903,
      "ĠfÃ¡cil": 1904,
      "ĠConsulta": 1905,
      "ĠnumÃ©": 1906,
      "ĠOverflow": 1907,
      "ĠreÃºne": 1908,
      "ĠĠĠĠĠĠĠ": 1909,
      "Ġescopo": 1910,
      "Ġprofission": 1911,
      "Ġextremamente": 1912,
      "Ġconsegue": 1913,
      "Ġmaneira": 1914,
      "ĠStructured": 1915,
      "Ġhashtag": 1916,
      "Ġhospeda": 1917,
      "Ġacompan": 1918,
      "Ġrecursos": 1919,
      "ĠatravÃ©s": 1920,
      "ĠEnvironment": 1921,
      "!\";": 1922,
      "\".": 1923,
      "\"]": 1924,
      "\"`": 1925,
      "%`": 1926,
      "''": 1927,
      "++": 1928,
      ".</": 1929,
      "10": 1930,
      "100": 1931,
      "44": 1932,
      "67": 1933,
      "<!": 1934,
      "=`": 1935,
      "AB": 1936,
      "CH": 1937,
      "CR": 1938,
      "CT": 1939,
      "CSS": 1940,
      "Char": 1941,
      "Casca": 1942,
      "DB": 1943,
      "DM": 1944,
      "DO": 1945,
      "Ef": 1946,
      "Ex": 1947,
      "Este": 1948,
      "HT": 1949,
      "Hello": 1950,
      "Jo": 1951,
      "LE": 1952,
      "Mundo": 1953,
      "Minha": 1954,
      "ND": 1955,
      "NÃ": 1956,
      "Null": 1957,
      "OM": 1958,
      "OT": 1959,
      "OU": 1960,
      "PE": 1961,
      "RY": 1962,
      "TE": 1963,
      "YPE": 1964,
      "__": 1965,
      "`<": 1966,
      "ap": 1967,
      "ante": 1968,
      "aÃ§Ã£o": 1969,
      "age": 1970,
      "antes": 1971,
      "act": 1972,
      "atribuÃŃdo": 1973,
      "aixar": 1974,
      "ber": 1975,
      "backend": 1976,
      "cl": 1977,
      "css": 1978,
      "cer": 1979,
      "cem": 1980,
      "che": 1981,
      "clar": 1982,
      "classe": 1983,
      "dint": 1984,
      "ec": 1985,
      "ear": 1986,
      "erir": 1987,
      "fere": 1988,
      "fei": 1989,
      "gis": 1990,
      "ger": 1991,
      "gar": 1992,
      "gÃ³": 1993,
      "gas": 1994,
      "gth": 1995,
      "ging": 1996,
      "gÃŃvel": 1997,
      "google": 1998,
      "hados": 1999,
      "href": 2000,
      "ia": 2001,
      "ido": 2002,
      "ith": 2003,
      "iÃªncia": 2004,
      "ker": 2005,
      "len": 2006,
      "lha": 2007,
      "lim": 2008,
      "lizar": 2009,
      "lone": 2010,
      "md": 2011,
      "mpo": 2012,
      "ming": 2013,
      "mbo": 2014,
      "mificaÃ§Ã£o": 2015,
      "nos": 2016,
      "ning": 2017,
      "null": 2018,
      "ool": 2019,
      "py": 2020,
      "pite": 2021,
      "pplica": 2022,
      "siz": 2023,
      "sÃµes": 2024,
      "stri": 2025,
      "tt": 2026,
      "tÃ£o": 2027,
      "tÃ³rio": 2028,
      "tml": 2029,
      "type": 2030,
      "ular": 2031,
      "uÃ¡rios": 2032,
      "vas": 2033,
      "vendo": 2034,
      "with": 2035,
      "yChar": 2036,
      "za": 2037,
      "zer": 2038,
      "{}": 2039,
      "Ã´": 2040,
      "Ãī": 2041,
      "ÏĢ": 2042,
      "Ġ*": 2043,
      "Ġ-": 2044,
      "ĠK": 2045,
      "Ġx": 2046,
      "Ġtu": 2047,
      "Ġhe": 2048,
      "Ġtre": 2049,
      "Ġimport": 2050,
      "Ġ//": 2051,
      "Ġjun": 2052,
      "Ġjson": 2053,
      "ĠtÃ©cnica": 2054,
      "ĥO": 2055,
      "rada": 2056,
      "ravi": 2057,
      "raÃ§o": 2058,
      "Ġevi": 2059,
      "Ġcrio": 2060,
      "ĠcÃ©": 2061,
      "Ġcente": 2062,
      "Ġche": 2063,
      "Ġcentra": 2064,
      "ĠciÃªncia": 2065,
      "Ġclone": 2066,
      "temÃ¡": 2067,
      "Ġdor": 2068,
      "lada": 2069,
      "Ġati": 2070,
      "Ġante": 2071,
      "Ġatribui": 2072,
      "Ġpi": 2073,
      "Ġpu": 2074,
      "Ġpon": 2075,
      "dando": 2076,
      "Ġdete": 2077,
      "Ġdela": 2078,
      "Ġdeve": 2079,
      "Ġdetal": 2080,
      "time": 2081,
      "tico": 2082,
      "tidores": 2083,
      "tique": 2084,
      "tificar": 2085,
      "tividade": 2086,
      "Ġun": 2087,
      "eloc": 2088,
      "elha": 2089,
      "tao": 2090,
      "tantes": 2091,
      "tanto": 2092,
      "indo": 2093,
      "inas": 2094,
      "inhado": 2095,
      "ril": 2096,
      "ries": 2097,
      "rica": 2098,
      "rifi": 2099,
      "ricos": 2100,
      "meira": 2101,
      "metros": 2102,
      "Ġfav": 2103,
      "Ġfini": 2104,
      "Ġfinal": 2105,
      "Ġfolhas": 2106,
      "Ġflex": 2107,
      "esa": 2108,
      "ise": 2109,
      "iser": 2110,
      "oca": 2111,
      "ocker": 2112,
      "ĠCon": 2113,
      "quen": 2114,
      "quele": 2115,
      "Ġsemp": 2116,
      "ĠsÃŃ": 2117,
      "ĠVAR": 2118,
      "ĠVale": 2119,
      "ĠUI": 2120,
      "ĠUX": 2121,
      "Ġpequen": 2122,
      "ĠMic": 2123,
      "ĠMongo": 2124,
      "ĠMana": 2125,
      "Ġ13": 2126,
      "Ġ18": 2127,
      "trap": 2128,
      "trar": 2129,
      "trada": 2130,
      "dora": 2131,
      "tilo": 2132,
      "ĠFranÃ§a": 2133,
      "ĠFolhas": 2134,
      "ĠDi": 2135,
      "ĠDis": 2136,
      "ĠDOM": 2137,
      "ĠDRY": 2138,
      "ponente": 2139,
      "ĠREA": 2140,
      "Ġcriadas": 2141,
      "toString": 2142,
      "Ġquais": 2143,
      "Ġquiser": 2144,
      "Ġnes": 2145,
      "Ġnas": 2146,
      "Ġnumero": 2147,
      "Ġnunca": 2148,
      "roso": 2149,
      "roxima": 2150,
      "Ã¡l": 2151,
      "Ġpaus": 2152,
      "ĠpaÃŃs": 2153,
      "ĠOR": 2154,
      "ĠOi": 2155,
      "ĠOs": 2156,
      "Ġvo": 2157,
      "ĠvÃŃ": 2158,
      "Ġvio": 2159,
      "Ġveloc": 2160,
      "car": 2161,
      "Ġempres": 2162,
      "deos": 2163,
      "cios": 2164,
      "Ġlingua": 2165,
      "Ġlug": 2166,
      "Ġ`//": 2167,
      "Ġ`*/": 2168,
      "Ġ`==": 2169,
      "Ġ`{}": 2170,
      "Ã³s": 2171,
      "Ã³ria": 2172,
      "Ã³gi": 2173,
      "Ã³rios": 2174,
      "Ġparar": 2175,
      "Ġparada": 2176,
      "Ġcomponente": 2177,
      "ĠPan": 2178,
      "ĠPomo": 2179,
      "ĠPÃ¡gin": 2180,
      "ĠPack": 2181,
      "ĠPyChar": 2182,
      "load": 2183,
      "lobal": 2184,
      "Ġnot": 2185,
      "Ġnova": 2186,
      "Ġbom": 2187,
      "Ġboa": 2188,
      "Ġbons": 2189,
      "Ġbaixar": 2190,
      "Ġrede": 2191,
      "Ġrece": 2192,
      "Ġreais": 2193,
      "Ġrequests": 2194,
      "ĠreatribuÃŃdo": 2195,
      "Ġregis": 2196,
      "mentaÃ§Ã£o": 2197,
      "Ġesquer": 2198,
      "Ġestou": 2199,
      "ĠindentaÃ§Ã£o": 2200,
      "Ġtesta": 2201,
      "ostre": 2202,
      "Ġexistente": 2203,
      "Ġexten": 2204,
      "ĠexplicaÃ§Ã£o": 2205,
      "Ġexpli": 2206,
      "Ġexterna": 2207,
      "ĠusuÃ¡rios": 2208,
      "grafi": 2209,
      "Ġoutros": 2210,
      "Ġcons": 2211,
      "ĠcontÃ©": 2212,
      "Ġconsel": 2213,
      "Ġconec": 2214,
      "Ġmol": 2215,
      "ĠmÃº": 2216,
      "pero": 2217,
      "hamento": 2218,
      "Ġmaravi": 2219,
      "ĠmatemÃ¡": 2220,
      "olÃ¡": 2221,
      "olhe": 2222,
      "ĠJÃ¡": 2223,
      "ĠJÃº": 2224,
      "ĠAplicaÃ§Ã£o": 2225,
      "ĠAgora": 2226,
      "ĠAND": 2227,
      "ĠApplica": 2228,
      "Ġcome": 2229,
      "ÃŃn": 2230,
      "ÃŃveis": 2231,
      "ĠSa": 2232,
      "ĠString": 2233,
      "Ġdicion": 2234,
      "Ġdiver": 2235,
      "ndom": 2236,
      "ĠHello": 2237,
      "ĠHipertexto": 2238,
      "ĠHyperText": 2239,
      "Ġarr": 2240,
      "Ġarredon": 2241,
      "Ġcompara": 2242,
      "uais": 2243,
      "rmo": 2244,
      "rmula": 2245,
      "Ġencon": 2246,
      "Ġentanto": 2247,
      "Ġentrada": 2248,
      "diÃ§Ã£o": 2249,
      "resposta": 2250,
      "true": 2251,
      "Ġ==": 2252,
      "hoje": 2253,
      "Ġintegra": 2254,
      "ĠfunÃ§Ãµes": 2255,
      "lia": 2256,
      "lida": 2257,
      "ĠNOT": 2258,
      "oots": 2259,
      "();`": 2260,
      "ĠBoolean": 2261,
      "ĠBash": 2262,
      "ĠBoots": 2263,
      "Ġ20": 2264,
      "Ġ21": 2265,
      "Ġ24": 2266,
      "Ġestruturada": 2267,
      "Ġestruturados": 2268,
      "Ġestruturadas": 2269,
      "Ġnativo": 2270,
      "butt": 2271,
      "entemente": 2272,
      "Ġmetada": 2273,
      "sividade": 2274,
      "ĠTerra": 2275,
      "ĠTAB": 2276,
      "Ġpartes": 2277,
      "contador": 2278,
      "gulas": 2279,
      "pais": 2280,
      "pagem": 2281,
      "pip": 2282,
      "pidamente": 2283,
      "Ġsimular": 2284,
      "Ġvagas": 2285,
      "put": 2286,
      "Ġhref": 2287,
      "Ġhtml": 2288,
      "Ġide": 2289,
      "Ġiden": 2290,
      "Ġtravar": 2291,
      "Ġresposta": 2292,
      "Ġaproxima": 2293,
      "ĠapÃ³s": 2294,
      "Ġutilizado": 2295,
      "using": 2296,
      "ĠestÃ¡tica": 2297,
      "Ġprojetado": 2298,
      "Ġelemento": 2299,
      "Ġelevado": 2300,
      "rigado": 2301,
      "Ġrandom": 2302,
      "Ġrapidamente": 2303,
      "Ġtoda": 2304,
      "Ġtomar": 2305,
      "Ġmenus": 2306,
      "ĠVerifi": 2307,
      "ĠMedia": 2308,
      "Ġbastidores": 2309,
      "ĠrepositÃ³rios": 2310,
      "ĠEscre": 2311,
      "ĠEstilo": 2312,
      "ĠEspero": 2313,
      "Ġdesenvolvido": 2314,
      "arem": 2315,
      "botao": 2316,
      "char": 2317,
      "chine": 2318,
      "gil": 2319,
      "Ġ+=": 2320,
      "Ġgit": 2321,
      "Ġglobal": 2322,
      "Ġdurmo": 2323,
      "Ġlocais": 2324,
      "endÃ¡rio": 2325,
      "Ġtenta": 2326,
      "Ġtentou": 2327,
      "Ġdireta": 2328,
      "Ġobjetivo": 2329,
      "Ġpermitem": 2330,
      "ĠLear": 2331,
      "Ġsuporte": 2332,
      "ĠÃºlti": 2333,
      "ĠvisÃŃvel": 2334,
      "Ġconversa": 2335,
      "Ġinterna": 2336,
      "Ġinterrom": 2337,
      "imaÃ§Ãµes": 2338,
      "persÃ£o": 2339,
      "Ġ80": 2340,
      "Ġ81": 2341,
      "Ġtiver": 2342,
      "Ġtipagem": 2343,
      "Ġdispon": 2344,
      "ĠIntelig": 2345,
      "beÃ§": 2346,
      "ĠcabeÃ§": 2347,
      "Ġacolhe": 2348,
      "Ġpercorre": 2349,
      "touch": 2350,
      "Ġrepete": 2351,
      "ticamente": 2352,
      "Ġ(`#": 2353,
      "Ġcontente": 2354,
      "Ġinterativa": 2355,
      "ĠabraÃ§o": 2356,
      "Ġabril": 2357,
      "Ġprimeira": 2358,
      "ĠMarcaÃ§Ã£o": 2359,
      "Ġfunciona": 2360,
      "Ġfuncione": 2361,
      "Ġfunciono": 2362,
      "bugs": 2363,
      "Ġgerar": 2364,
      "Ġprincipais": 2365,
      "randint": 2366,
      "Ġaninhado": 2367,
      "ĠanimaÃ§Ãµes": 2368,
      "ĠDepuraÃ§Ã£o": 2369,
      "ĠlegÃŃvel": 2370,
      "Ġremover": 2371,
      "Ġprocess": 2372,
      "Ġcomplex": 2373,
      "Ġorganizado": 2374,
      "Ġorganizada": 2375,
      "Ġtrabalhar": 2376,
      "Ġmenores": 2377,
      "Ġmodelo": 2378,
      "Ġdocumentos": 2379,
      "ĠdocumentaÃ§Ã£o": 2380,
      "fect": 2381,
      "Ġatualizado": 2382,
      "Ġdepurar": 2383,
      "Ġdepurador": 2384,
      "Ġsemelha": 2385,
      "ĠÃ¡gil": 2386,
      "entada": 2387,
      "Ġretornar": 2388,
      "Ġusam": 2389,
      "Ġpossu": 2390,
      "Ġservidores": 2391,
      "Ġordenar": 2392,
      "Ġquadrado": 2393,
      "Ġnavegadores": 2394,
      "!\");": 2395,
      "Ġ70": 2396,
      "Ġgrande": 2397,
      "Ġitens": 2398,
      "ĠcalendÃ¡rio": 2399,
      "Ġcolocar": 2400,
      "Ġcolche": 2401,
      "Ġprecisa": 2402,
      "Ġexibi": 2403,
      "izaÃ§Ãµes": 2404,
      "Ġprontos": 2405,
      "Ġsobrenome": 2406,
      "Ġtraduzido": 2407,
      "Ġgosto": 2408,
      "Ġperguntar": 2409,
      "Ġmodificar": 2410,
      "Ġalgoritmos": 2411,
      "float": 2412,
      "numeros": 2413,
      "Ġimpe": 2414,
      "Ġimpri": 2415,
      "Ġfalso": 2416,
      "Ġfeito": 2417,
      "Ġfeitas": 2418,
      "ĠReact": 2419,
      "ĠObrigado": 2420,
      "Ġbugs": 2421,
      "ĠbotÃ£o": 2422,
      "ĠmÃ¡quinas": 2423,
      "ĠQueries": 2424,
      "Ġenvia": 2425,
      "Ġinteiros": 2426,
      "Ġmesclar": 2427,
      "Ġbastante": 2428,
      "Ġverdadeiro": 2429,
      "Ġplaneta": 2430,
      "Ġplanetas": 2431,
      "Ġchamado": 2432,
      "Ġchamadas": 2433,
      "Ġmanipular": 2434,
      "ĠclÃ¡ssica": 2435,
      "...": 2436,
      "1415": 2437,
      "EATE": 2438,
      "ltiplas": 2439,
      "www": 2440,
      "Ġimportar": 2441,
      "Ġimportantes": 2442,
      "Ġdigitar": 2443,
      "Ġfocado": 2444,
      "ĠCascata": 2445,
      "ĠCascading": 2446,
      "ĠUser": 2447,
      "ĠUsuÃ¡rio": 2448,
      "Ġfornece": 2449,
      "Ġ`/*`": 2450,
      "Ġbranco": 2451,
      "Ġbranch": 2452,
      "Ġescrito": 2453,
      "Ġexatamente": 2454,
      "ĠmarcaÃ§Ã£o": 2455,
      "Ġmanter": 2456,
      "Ġmantendo": 2457,
      "Ġcompartilhamento": 2458,
      "Ġmodernos": 2459,
      "Ġdispositivo": 2460,
      "Ġseguido": 2461,
      "Ġrecomendada": 2462,
      "ĠdÃºvida": 2463,
      "ĠdÃºvidas": 2464,
      "123": 2465,
      "false": 2466,
      "sort": 2467,
      "Ġ*/`.": 2468,
      "Ġessa": 2469,
      "Ġcasas": 2470,
      "Ġatributo": 2471,
      "Ġacontece": 2472,
      "Ġpreferir": 2473,
      "Ġdecimais": 2474,
      "ĠfÃ³rmula": 2475,
      "Ġficam": 2476,
      "Ġstatus": 2477,
      "Ġsalvar": 2478,
      "ĠMachine": 2479,
      "Ġquebrar": 2480,
      "Ġquery": 2481,
      "ĠnegÃ³": 2482,
      "alhost": 2483,
      "ĠvÃŃrgulas": 2484,
      "debugging": 2485,
      "Ġlimpa": 2486,
      "Ġ`+`": 2487,
      "Ġcombina": 2488,
      "Ġborder": 2489,
      "Ġestarei": 2490,
      "Ġexistem": 2491,
      "Ġmulti": 2492,
      "Ġpopular": 2493,
      "periÃªncia": 2494,
      "ĠArtificial": 2495,
      "Ġpressionando": 2496,
      "ĠQuantos": 2497,
      "ĠdivisÃ£o": 2498,
      "Ġcompreender": 2499,
      "ĠexecutÃ¡vel": 2500,
      "Ġvazio": 2501,
      "Ġorientada": 2502,
      "Ġconversem": 2503,
      "Ġresponder": 2504,
      "Ġonline": 2505,
      "ĠlÃ³gicos": 2506,
      "ĠtrÃ¡s": 2507,
      "Ġanalisar": 2508,
      "Ġgratuito": 2509,
      "ĠProgramming": 2510,
      "Ġgostaria": 2511,
      "ĠcolaboraÃ§Ã£o": 2512,
      "Ġautomaticamente": 2513,
      "ĠÃŃndice": 2514,
      "Ġprofissional": 2515,
      "Ġhospedagem": 2516,
      "Ġacompanhar": 2517,
      "CHAR": 2518,
      "CREATE": 2519,
      "CTYPE": 2520,
      "Cascading": 2521,
      "DME": 2522,
      "DOCTYPE": 2523,
      "Effect": 2524,
      "HTML": 2525,
      "JoÃ£o": 2526,
      "NÃĥO": 2527,
      "append": 2528,
      "length": 2529,
      "ools": 2530,
      "piter": 2531,
      "size": 2532,
      "strip": 2533,
      "Ġcriou": 2534,
      "ĠcÃ©u": 2535,
      "Ġcenter": 2536,
      "Ġcentralizar": 2537,
      "Ġanterior": 2538,
      "Ġfavor": 2539,
      "Ġfinita": 2540,
      "Ġsempre": 2541,
      "ĠsÃŃmbo": 2542,
      "ĠVARCHAR": 2543,
      "ĠValeu": 2544,
      "Ġpequenos": 2545,
      "ĠMicroso": 2546,
      "ĠMongoDB": 2547,
      "ĠManager": 2548,
      "ĠREADME": 2549,
      "ĠvÃŃdeos": 2550,
      "Ġvelocidade": 2551,
      "Ġempresa": 2552,
      "Ġlinguagens": 2553,
      "Ġlugar": 2554,
      "Ġ`*/`": 2555,
      "Ġ`{}`": 2556,
      "Ġcomponentes": 2557,
      "ĠPandas": 2558,
      "ĠPomodoro": 2559,
      "ĠPÃ¡gina": 2560,
      "ĠPackage": 2561,
      "ĠPyCharm": 2562,
      "loads": 2563,
      "Ġreceber": 2564,
      "Ġesquerda": 2565,
      "ĠextensÃ£o": 2566,
      "grafia": 2567,
      "ĠcontÃ©m": 2568,
      "Ġconselho": 2569,
      "ĠmÃºltiplas": 2570,
      "Ġmaravilhos": 2571,
      "ĠJÃºpiter": 2572,
      "ĠApplication": 2573,
      "ĠdicionÃ¡rio": 2574,
      "Ġdivers": 2575,
      "Ġarredondar": 2576,
      "ĠBootstrap": 2577,
      "button": 2578,
      "Ġmetadados": 2579,
      "ĠTABLE": 2580,
      "Ġidentificar": 2581,
      "Ġrespostas": 2582,
      "Ġaproximadamente": 2583,
      "ĠVerifique": 2584,
      "ĠEscreva": 2585,
      "ĠLearning": 2586,
      "ĠÃºltimo": 2587,
      "Ġinterromper": 2588,
      "ĠInteligÃªncia": 2589,
      "Ġacolhedora": 2590,
      "Ġpercorrer": 2591,
      "Ġcolchetes": 2592,
      "14159": 2593,
      "ĠnegÃ³cios": 2594,
      "ĠMicrosoft": 2595,
      "!\"": 2596,
      "\"{": 2597,
      "\"`)": 2598,
      "#:": 2599,
      "#?": 2600,
      "')": 2601,
      "'.": 2602,
      "';": 2603,
      "'t": 2604,
      "'`.": 2605,
      "'`)": 2606,
      "'>`.": 2607,
      ")`.": 2608,
      "));": 2609,
      "./": 2610,
      "/`.": 2611,
      "20": 2612,
      "25": 2613,
      "45": 2614,
      "60": 2615,
      "79": 2616,
      "99": 2617,
      "960": 2618,
      ":`).": 2619,
      ";`.": 2620,
      ">=": 2621,
      "Ac": 2622,
      "Ap": 2623,
      "Ana": 2624,
      "BR": 2625,
      "Backend": 2626,
      "Car": 2627,
      "Cli": 2628,
      "Comp": 2629,
      "Cmd": 2630,
      "De": 2631,
      "Don": 2632,
      "Dig": 2633,
      "Docker": 2634,
      "ES": 2635,
      "EY": 2636,
      "Esta": 2637,
      "For": 2638,
      "Flame": 2639,
      "Frontend": 2640,
      "Frame": 2641,
      "Funca": 2642,
      "Gere": 2643,
      "HyperText": 2644,
      "IA": 2645,
      "IM": 2646,
      "In": 2647,
      "Ir": 2648,
      "Idade": 2649,
      "Isso": 2650,
      "Inde": 2651,
      "Java": 2652,
      "Lu": 2653,
      "Loc": 2654,
      "Line": 2655,
      "Linux": 2656,
      "Ma": 2657,
      "Me": 2658,
      "Men": 2659,
      "NT": 2660,
      "NÃ£o": 2661,
      "Node": 2662,
      "Pi": 2663,
      "Po": 2664,
      "Por": 2665,
      "RL": 2666,
      "Respon": 2667,
      "RIM": 2668,
      "SÃ£o": 2669,
      "Sil": 2670,
      "TF": 2671,
      "Type": 2672,
      "TypeScript": 2673,
      "Tools": 2674,
      "UTF": 2675,
      "VS": 2676,
      "Wri": 2677,
      "You": 2678,
      "];`": 2679,
      "`#": 2680,
      "ab": 2681,
      "ac": 2682,
      "ak": 2683,
      "am": 2684,
      "ate": 2685,
      "ata": 2686,
      "ario": 2687,
      "afi": 2688,
      "api": 2689,
      "atica": 2690,
      "atribu": 2691,
      "ayle": 2692,
      "azer": 2693,
      "ba": 2694,
      "br": 2695,
      "bor": 2696,
      "bro": 2697,
      "bca": 2698,
      "ban": 2699,
      "bli": 2700,
      "biblioteca": 2701,
      "back": 2702,
      "bendo": 2703,
      "bran": 2704,
      "brica": 2705,
      "cp": 2706,
      "cs": 2707,
      "cor": 2708,
      "ces": 2709,
      "cria": 2710,
      "cle": 2711,
      "col": 2712,
      "cÃº": 2713,
      "cli": 2714,
      "ctar": 2715,
      "cesso": 2716,
      "cendo": 2717,
      "clu": 2718,
      "centra": 2719,
      "db": 2720,
      "dl": 2721,
      "dro": 2722,
      "dica": 2723,
      "dun": 2724,
      "dul": 2725,
      "dinha": 2726,
      "dificaÃ§Ã£o": 2727,
      "dindo": 2728,
      "et": 2729,
      "edo": 2730,
      "eranÃ§a": 2731,
      "efei": 2732,
      "eza": 2733,
      "edro": 2734,
      "fr": 2735,
      "fy": 2736,
      "fig": 2737,
      "fer": 2738,
      "fine": 2739,
      "frontend": 2740,
      "from": 2741,
      "glo": 2742,
      "gado": 2743,
      "ground": 2744,
      "hro": 2745,
      "hite": 2746,
      "hando": 2747,
      "hum": 2748,
      "hello": 2749,
      "histÃ³": 2750,
      "id": 2751,
      "ici": 2752,
      "iÃ§Ã£o": 2753,
      "ias": 2754,
      "itos": 2755,
      "idi": 2756,
      "ili": 2757,
      "iref": 2758,
      "iais": 2759,
      "iva": 2760,
      "itivo": 2761,
      "itado": 2762,
      "itando": 2763,
      "idades": 2764,
      "iquem": 2765,
      "irem": 2766,
      "iostre": 2767,
      "jÃ¡": 2768,
      "jar": 2769,
      "java": 2770,
      "km": 2771,
      "ll": 2772,
      "lvar": 2773,
      "lterna": 2774,
      "ms": 2775,
      "mu": 2776,
      "mica": 2777,
      "mÃ©": 2778,
      "mite": 2779,
      "mir": 2780,
      "minha": 2781,
      "mizada": 2782,
      "mpar": 2783,
      "mporte": 2784,
      "mÃ³ria": 2785,
      "mitivo": 2786,
      "ng": 2787,
      "nu": 2788,
      "nol": 2789,
      "nho": 2790,
      "nja": 2791,
      "nder": 2792,
      "nus": 2793,
      "ngi": 2794,
      "nsar": 2795,
      "ncional": 2796,
      "nico": 2797,
      "ndes": 2798,
      "nix": 2799,
      "ndentaÃ§Ã£o": 2800,
      "ok": 2801,
      "ox": 2802,
      "olo": 2803,
      "oje": 2804,
      "oÃ§Ãµes": 2805,
      "ogo": 2806,
      "oper": 2807,
      "ovado": 2808,
      "orando": 2809,
      "olada": 2810,
      "pla": 2811,
      "pel": 2812,
      "ption": 2813,
      "pÃ©": 2814,
      "ptar": 2815,
      "pse": 2816,
      "pcional": 2817,
      "pdb": 2818,
      "ql": 2819,
      "rma": 2820,
      "rta": 2821,
      "run": 2822,
      "rce": 2823,
      "rpretador": 2824,
      "rself": 2825,
      "sti": 2826,
      "sto": 2827,
      "ser": 2828,
      "sado": 2829,
      "str": 2830,
      "sim": 2831,
      "star": 2832,
      "stre": 2833,
      "spa": 2834,
      "sub": 2835,
      "sfa": 2836,
      "sql": 2837,
      "td": 2838,
      "tx": 2839,
      "toc": 2840,
      "tÃµes": 2841,
      "tmo": 2842,
      "tmos": 2843,
      "ut": 2844,
      "ura": 2845,
      "uÃ§Ã£o": 2846,
      "uco": 2847,
      "utro": 2848,
      "use": 2849,
      "uva": 2850,
      "utas": 2851,
      "uraÃ§Ã£o": 2852,
      "urma": 2853,
      "vh": 2854,
      "val": 2855,
      "ven": 2856,
      "van": 2857,
      "vale": 2858,
      "voca": 2859,
      "vTools": 2860,
      "xo": 2861,
      "xer": 2862,
      "xim": 2863,
      "xError": 2864,
      "xili": 2865,
      "yste": 2866,
      "zes": 2867,
      "{\"": 2868,
      "}'": 2869,
      "}\"`.": 2870,
      "}!\"": 2871,
      "Â²": 2872,
      "Ġ#": 2873,
      "Ġ.": 2874,
      "ĠĊ": 2875,
      "Ġri": 2876,
      "Ġlara": 2877,
      "Ġif": 2878,
      "Ġgrama": 2879,
      "Ġign": 2880,
      "Ġju": 2881,
      "Ġlar": 2882,
      "Ġtri": 2883,
      "Ġtor": 2884,
      "Ġgraf": 2885,
      "Ġ/*": 2886,
      "Ġ;`": 2887,
      "Ġ__": 2888,
      "ĠÏĢ": 2889,
      "Ġ/`.": 2890,
      "Ġ>=": 2891,
      "ĠYou": 2892,
      "ĠjÃ¡": 2893,
      "Ġkm": 2894,
      "Ģs": 2895,
      "ģlvar": 2896,
      "ral": 2897,
      "rata": 2898,
      "radi": 2899,
      "rano": 2900,
      "racha": 2901,
      "ralmente": 2902,
      "rativa": 2903,
      "ramificaÃ§Ã£o": 2904,
      "ratique": 2905,
      "Ġema": 2906,
      "Ġente": 2907,
      "Ġecon": 2908,
      "Ġesse": 2909,
      "Ġeven": 2910,
      "Ġcel": 2911,
      "Ġcar": 2912,
      "ĠcÃ³": 2913,
      "Ġchar": 2914,
      "Ġcidade": 2915,
      "Ġcerto": 2916,
      "Ġclass": 2917,
      "Ġcic": 2918,
      "ĠcÃ¡l": 2919,
      "Ġcedo": 2920,
      "teis": 2921,
      "tente": 2922,
      "teza": 2923,
      "tetime": 2924,
      "teLine": 2925,
      "Ġdin": 2926,
      "ĠdÃª": 2927,
      "Ġdando": 2928,
      "lado": 2929,
      "laÃ§Ã£o": 2930,
      "lando": 2931,
      "lares": 2932,
      "laÃ§Ãµes": 2933,
      "lados": 2934,
      "Ġada": 2935,
      "Ġama": 2936,
      "Ġain": 2937,
      "Ġapon": 2938,
      "Ġato": 2939,
      "Ġale": 2940,
      "Ġaos": 2941,
      "ĠaÃŃ": 2942,
      "ĠaÃ§Ãµes": 2943,
      "Ġapa": 2944,
      "Ġano": 2945,
      "Ġaus": 2946,
      "Ġativo": 2947,
      "Ġaque": 2948,
      "Ġafe": 2949,
      "ĠatribuÃŃdo": 2950,
      "Ġaguar": 2951,
      "Ġagora": 2952,
      "Ġaquele": 2953,
      "ĠadiÃ§Ã£o": 2954,
      "Ġachar": 2955,
      "Ġatmos": 2956,
      "Ġavan": 2957,
      "orden": 2958,
      "onhos": 2959,
      "onac": 2960,
      "Ġpes": 2961,
      "ĠpÃº": 2962,
      "Ġ[\"": 2963,
      "Ġ[];`": 2964,
      "day": 2965,
      "dada": 2966,
      "dado": 2967,
      "dantes": 2968,
      "datetime": 2969,
      "Ġdeu": 2970,
      "Ġdepo": 2971,
      "Ġdele": 2972,
      "Ġdevi": 2973,
      "Ġdebug": 2974,
      "Ġdeixar": 2975,
      "Ġdelim": 2976,
      "tic": 2977,
      "tidi": 2978,
      "tiver": 2979,
      "tifici": 2980,
      "tina": 2981,
      "ticos": 2982,
      "tivos": 2983,
      "timizada": 2984,
      "tinho": 2985,
      "tisfa": 2986,
      "mal": 2987,
      "mada": 2988,
      "maÃ§": 2989,
      "mane": 2990,
      "mana": 2991,
      "elf": 2992,
      "elÃ³gi": 2993,
      "tam": 2994,
      "taÃ§Ãµes": 2995,
      "tauraÃ§Ã£o": 2996,
      "into": 2997,
      "iner": 2998,
      "inar": 2999,
      "inado": 3000,
      "inais": 3001,
      "inhas": 3002,
      "inou": 3003,
      "inhados": 3004,
      "input": 3005,
      "inclu": 3006,
      "rid": 3007,
      "ris": 3008,
      "riu": 3009,
      "rimo": 3010,
      "rimento": 3011,
      "rigin": 3012,
      "ritÃ³rio": 3013,
      "meta": 3014,
      "media": 3015,
      "merada": 3016,
      "mespa": 3017,
      "Ġfen": 3018,
      "Ġflo": 3019,
      "Ġfico": 3020,
      "Ġfocar": 3021,
      "Ġfil": 3022,
      "Ġfrom": 3023,
      "Ġfixar": 3024,
      "estil": 3025,
      "espi": 3026,
      "estri": 3027,
      "estÃµes": 3028,
      "isas": 3029,
      "isÃµes": 3030,
      "ismo": 3031,
      "isual": 3032,
      "isarem": 3033,
      "isiÃ§Ã£o": 3034,
      "ocÃŃn": 3035,
      "ĠCui": 3036,
      "ĠCada": 3037,
      "ĠCtrl": 3038,
      "ĠCab": 3039,
      "ĠChro": 3040,
      "igh": 3041,
      "igin": 3042,
      "ight": 3043,
      "igante": 3044,
      "Ġof": 3045,
      "ĠolÃ¡": 3046,
      "Ġolhos": 3047,
      "Ġopen": 3048,
      "Ġolha": 3049,
      "Ġopcional": 3050,
      "Ġotimizada": 3051,
      "quise": 3052,
      "quisiÃ§Ã£o": 3053,
      "ssa": 3054,
      "ssim": 3055,
      "Ġsol": 3056,
      "Ġsinal": 3057,
      "Ġsele": 3058,
      "Ġstd": 3059,
      "Ġsonhos": 3060,
      "Ġself": 3061,
      "ĠVÃª": 3062,
      "ĠVou": 3063,
      "ĠVatica": 3064,
      "ĠVisual": 3065,
      "pop": 3066,
      "point": 3067,
      "ĠUsar": 3068,
      "ĠURL": 3069,
      "ĠUnix": 3070,
      "ĠUrano": 3071,
      "ĠÃĢs": 3072,
      "ĠÃģlvar": 3073,
      "Ġpensar": 3074,
      "ĠMer": 3075,
      "ĠMas": 3076,
      "ĠMÃ¡qu": 3077,
      "Ġcriado": 3078,
      "ĠcriaÃ§Ã£o": 3079,
      "Ġcriador": 3080,
      "Ġcriados": 3081,
      "Ġ11": 3082,
      "Ġ16": 3083,
      "Ġ144": 3084,
      "Ġ1960": 3085,
      "trados": 3086,
      "dou": 3087,
      "ĠforÃ§": 3088,
      "Ġformu": 3089,
      "tilinha": 3090,
      "tileza": 3091,
      "ĠFui": 3092,
      "ĠFib": 3093,
      "ĠFlex": 3094,
      "ĠFazer": 3095,
      "ĠFiref": 3096,
      "ĠDiz": 3097,
      "ĠDocker": 3098,
      "ĠData": 3099,
      "ĠDurma": 3100,
      "Ġformar": 3101,
      "Ġformas": 3102,
      "Ġformatos": 3103,
      "Ġformatar": 3104,
      "Ġformatado": 3105,
      "ĠformataÃ§Ã£o": 3106,
      "Ġpelas": 3107,
      "init": 3108,
      "ponto": 3109,
      "ponha": 3110,
      "ĠRoma": 3111,
      "ĠRayle": 3112,
      "ĠRespi": 3113,
      "Ġassim": 3114,
      "Ġassista": 3115,
      "Ġassum": 3116,
      "Ġassina": 3117,
      "reve": 3118,
      "read": 3119,
      "reÃ§o": 3120,
      "return": 3121,
      "requests": 3122,
      "regado": 3123,
      "Ġclaras": 3124,
      "ĠResponsividade": 3125,
      "todos": 3126,
      "tografia": 3127,
      "today": 3128,
      "Ġquil": 3129,
      "ĠquestÃµes": 3130,
      "omiz": 3131,
      "Ġnen": 3132,
      "ĠnÃŃvel": 3133,
      "Ġnone": 3134,
      "Ã§ados": 3135,
      "Ã§ada": 3136,
      "almente": 3137,
      "alho": 3138,
      "Ã¡ria": 3139,
      "Ã¡rias": 3140,
      "Ã¡ticos": 3141,
      "Ã£e": 3142,
      "Ġpai": 3143,
      "Ġpapel": 3144,
      "Ġpatinho": 3145,
      "ĠOpera": 3146,
      "ĠOutro": 3147,
      "erde": 3148,
      "erindo": 3149,
      "ermite": 3150,
      "ĠvÃ£o": 3151,
      "Ġvar": 3152,
      "Ġvem": 3153,
      "Ġvale": 3154,
      "cas": 3155,
      "cat": 3156,
      "cade": 3157,
      "Ġempa": 3158,
      "Ġemula": 3159,
      "Ġempen": 3160,
      "ĠemoÃ§Ãµes": 3161,
      "arqui": 3162,
      "arras": 3163,
      "arredon": 3164,
      "dente": 3165,
      "derem": 3166,
      "depuraÃ§Ã£o": 3167,
      "derada": 3168,
      "define": 3169,
      "dereÃ§o": 3170,
      "cie": 3171,
      "citamente": 3172,
      "ciais": 3173,
      "ciocÃŃn": 3174,
      "ĠlÃª": 3175,
      "Ġlem": 3176,
      "Ġlist": 3177,
      "Ġlongo": 3178,
      "Ġlogo": 3179,
      "Ġ`'": 3180,
      "Ġ`</": 3181,
      "Ġ`%`": 3182,
      "Ġ`=`": 3183,
      "Ġcomposta": 3184,
      "ĠPesso": 3185,
      "ĠPull": 3186,
      "ĠPush": 3187,
      "ĠPrior": 3188,
      "ĠPRIM": 3189,
      "ĠPedro": 3190,
      "ĠPratique": 3191,
      "ĠPermite": 3192,
      "asta": 3193,
      "asos": 3194,
      "embre": 3195,
      "entar": 3196,
      "ence": 3197,
      "entaÃ§Ã£o": 3198,
      "entileza": 3199,
      "lou": 3200,
      "Ġnode": 3201,
      "Ġnovos": 3202,
      "Ġnossa": 3203,
      "Ġbus": 3204,
      "Ġback": 3205,
      "Ġbackend": 3206,
      "Ġblu": 3207,
      "Ġbidi": 3208,
      "Ġbreve": 3209,
      "Ġbarras": 3210,
      "leta": 3211,
      "leto": 3212,
      "letras": 3213,
      "Ġrecon": 3214,
      "Ġrepi": 3215,
      "Ġrefe": 3216,
      "Ġreduz": 3217,
      "Ġrefere": 3218,
      "Ġredun": 3219,
      "ĠrequisiÃ§Ã£o": 3220,
      "anas": 3221,
      "meno": 3222,
      "mension": 3223,
      "Ġescu": 3224,
      "Ġespera": 3225,
      "Ġesten": 3226,
      "Ġespal": 3227,
      "ĠestÃ£o": 3228,
      "ĠespÃ©": 3229,
      "Ġestiver": 3230,
      "ĠEcli": 3231,
      "Ġindo": 3232,
      "Ġinver": 3233,
      "Ġinse": 3234,
      "Ġincorre": 3235,
      "Ġincl": 3236,
      "Ġinput": 3237,
      "Ġindica": 3238,
      "Ġinovado": 3239,
      "Ġinvoca": 3240,
      "Ġtema": 3241,
      "Ġtelas": 3242,
      "Ġtestar": 3243,
      "Ġ(\"": 3244,
      "omovendo": 3245,
      "Ġpropor": 3246,
      "Ġprotoc": 3247,
      "Ġexpe": 3248,
      "Ġexplica": 3249,
      "Ġexpres": 3250,
      "ĠexperiÃªncia": 3251,
      "Ġusados": 3252,
      "Ġusua": 3253,
      "uno": 3254,
      "unto": 3255,
      "unas": 3256,
      "undefine": 3257,
      "tudi": 3258,
      "tuante": 3259,
      "Ġout": 3260,
      "Ġoutra": 3261,
      "Ġouvi": 3262,
      "Ġoutro": 3263,
      "Ġcontar": 3264,
      "Ġconce": 3265,
      "Ġcontexto": 3266,
      "Ġconcentra": 3267,
      "Ġconfig": 3268,
      "thub": 3269,
      "Ġmui": 3270,
      "Ġminha": 3271,
      "Ġmudar": 3272,
      "Ġmostre": 3273,
      "Ġminhas": 3274,
      "ĠmÃ£e": 3275,
      "Ġpointer": 3276,
      "Ġpouco": 3277,
      "Ġpotente": 3278,
      "Ġsente": 3279,
      "Ġserem": 3280,
      "itÃ¡ria": 3281,
      "pecion": 3282,
      "peat": 3283,
      "peitar": 3284,
      "izÃ¡": 3285,
      "izados": 3286,
      "izÃ¡vel": 3287,
      "haria": 3288,
      "hadas": 3289,
      "Ġmain": 3290,
      "Ġmath": 3291,
      "Ġmatri": 3292,
      "ĠJavascript": 3293,
      "ĠJunto": 3294,
      "ĠAs": 3295,
      "ĠAplica": 3296,
      "ĠAtual": 3297,
      "ĠAdoro": 3298,
      "ĠAlterna": 3299,
      "ĠAssim": 3300,
      "Ġ\")": 3301,
      "Ġ\";": 3302,
      "code": 3303,
      "cotar": 3304,
      "criÃ§Ã£o": 3305,
      "Ġcoisa": 3306,
      "ĠcodificaÃ§Ã£o": 3307,
      "Ġcout": 3308,
      "Ġcotidi": 3309,
      "Ġcoisas": 3310,
      "vidor": 3311,
      "vidos": 3312,
      "vidades": 3313,
      "ÃŃda": 3314,
      "ÃŃdos": 3315,
      "ÃŃce": 3316,
      "ÃŃlia": 3317,
      "ĠprÃ¡ticos": 3318,
      "Ġpromovendo": 3319,
      "ĠSignifica": 3320,
      "ĠSei": 3321,
      "ĠSou": 3322,
      "ĠSendo": 3323,
      "ĠSyste": 3324,
      "ĠSinto": 3325,
      "ĠStudi": 3326,
      "Ġprogramas": 3327,
      "Ġprogramada": 3328,
      "Ġprogramador": 3329,
      "Ġprogramados": 3330,
      "Ġtabu": 3331,
      "Ġtable": 3332,
      "Ã©m": 3333,
      "Ã©cu": 3334,
      "ĠdiÃ¡rio": 3335,
      "ĠdiÃ¡rias": 3336,
      "Ġfala": 3337,
      "Ġfato": 3338,
      "ĠfaÃ§a": 3339,
      "Ġfalar": 3340,
      "Ġfarei": 3341,
      "ĠHeranÃ§a": 3342,
      "ĠHoje": 3343,
      "Ġartifici": 3344,
      "Ġcomprimento": 3345,
      "cuo": 3346,
      "uario": 3347,
      "rminado": 3348,
      "Ġenvol": 3349,
      "Ġengen": 3350,
      "ĠentÃ£o": 3351,
      "Ġencar": 3352,
      "Ġendl": 3353,
      "Ġenglo": 3354,
      "Ġenxer": 3355,
      "Ġencade": 3356,
      "ĠendereÃ§o": 3357,
      "Ġdescre": 3358,
      "Ġdesafi": 3359,
      "Ġdesorden": 3360,
      "ĠdescriÃ§Ã£o": 3361,
      "items": 3362,
      "quilha": 3363,
      "dico": 3364,
      "dicional": 3365,
      "cionar": 3366,
      "cionÃ¡rios": 3367,
      "cionadas": 3368,
      "tÃ¡lia": 3369,
      "Ġ===": 3370,
      "lÃ¡rios": 3371,
      "dark": 3372,
      "Ġintencional": 3373,
      "nciado": 3374,
      "Ġdata": 3375,
      "Ġfundo": 3376,
      "Ġfunction": 3377,
      "Ġfundada": 3378,
      "lido": 3379,
      "ĠNÃ£o": 3380,
      "ĠNet": 3381,
      "ĠExib": 3382,
      "ĠExperi": 3383,
      "get": 3384,
      "geralmente": 3385,
      "turas": 3386,
      "ultar": 3387,
      "verdade": 3388,
      "versa": 3389,
      "volve": 3390,
      "Ġalta": 3391,
      "Ġalto": 3392,
      "Ġalign": 3393,
      "Ġalgu": 3394,
      "Ġalcan": 3395,
      "Ġalinhados": 3396,
      "ĠalÃ©m": 3397,
      "modu": 3398,
      "modul": 3399,
      "somar": 3400,
      "ĠIP": 3401,
      "ĠINT": 3402,
      "ĠImporte": 3403,
      "ĠIndentaÃ§Ã£o": 3404,
      "ĠIsto": 3405,
      "ĠItÃ¡lia": 3406,
      "Ġajudou": 3407,
      "())": 3408,
      "ĠBom": 3409,
      "ĠBras": 3410,
      "ĠBons": 3411,
      "ĠBasta": 3412,
      "Ġ22": 3413,
      "Ġ28": 3414,
      "Ġ299": 3415,
      "Ġfazem": 3416,
      "Ġfazendo": 3417,
      "Ġestruturas": 3418,
      "Ġestruturais": 3419,
      "Ġexecute": 3420,
      "Ġnaquele": 3421,
      "Ġnamespa": 3422,
      "ception": 3423,
      "status": 3424,
      "Ġ'./": 3425,
      "Ġ'{\"": 3426,
      "Ġmedo": 3427,
      "Ġmesa": 3428,
      "Ġmeio": 3429,
      "Ġmecan": 3430,
      "Ġmetros": 3431,
      "ĠmemÃ³ria": 3432,
      "ĠsistemÃ¡": 3433,
      "siva": 3434,
      "sivas": 3435,
      "ĠTente": 3436,
      "ĠTÃŃtulo": 3437,
      "ĠTools": 3438,
      "ĠTrata": 3439,
      "ĠparÃ¢": 3440,
      "Ġobter": 3441,
      "erem": 3442,
      "ibil": 3443,
      "conten": 3444,
      "conjunto": 3445,
      "concat": 3446,
      "fico": 3447,
      "gura": 3448,
      "pai": 3449,
      "pia": 3450,
      "pio": 3451,
      "pilador": 3452,
      "pilados": 3453,
      "set": 3454,
      "ĠParabÃ©": 3455,
      "not": 3456,
      "Ġvai": 3457,
      "Ġhipertexto": 3458,
      "Ġherde": 3459,
      "Ġid": 3460,
      "Ġimedia": 3461,
      "Ġorigin": 3462,
      "Ġortografia": 3463,
      "Ġtrave": 3464,
      "Ġtradicion": 3465,
      "Ġtrans": 3466,
      "Ġtradicional": 3467,
      "ĠrestauraÃ§Ã£o": 3468,
      "Ġrespeitar": 3469,
      "ĠdifÃŃce": 3470,
      "ĠoperaÃ§Ãµes": 3471,
      "Ġoperadores": 3472,
      "Ġnomeadas": 3473,
      "ĠnomeComp": 3474,
      "plicado": 3475,
      "Ġloops": 3476,
      "Ġloopback": 3477,
      "Ġaprimo": 3478,
      "Ġveja": 3479,
      "Ġlistas": 3480,
      "Ġterminais": 3481,
      "port": 3482,
      "Ġutilizar": 3483,
      "usula": 3484,
      "usuario": 3485,
      "Ġ34": 3486,
      "Ġ300": 3487,
      "Ġwhile": 3488,
      "Ġwhite": 3489,
      "Ġhook": 3490,
      "terais": 3491,
      "ĠPorque": 3492,
      "ĠPortugu": 3493,
      "ĠestÃ¡vel": 3494,
      "Ġentregar": 3495,
      "localhost": 3496,
      "Ġerrando": 3497,
      "ĠcomputaÃ§Ã£o": 3498,
      "vacidade": 3499,
      "Ġraio": 3500,
      "ĠramificaÃ§Ã£o": 3501,
      "Ġrastre": 3502,
      "ĠraciocÃŃn": 3503,
      "Ġtodas": 3504,
      "Ġtomada": 3505,
      "Ġmental": 3506,
      "Ġcorrigin": 3507,
      "ĠEste": 3508,
      "000": 3509,
      "box": 3510,
      "chÃ¡vel": 3511,
      "github": 3512,
      "Ġgrid": 3513,
      "Ġgigante": 3514,
      "Ġgasos": 3515,
      "Ġgentileza": 3516,
      "dentation": 3517,
      "Ġtemos": 3518,
      "Ġtentar": 3519,
      "Ġmode": 3520,
      "Ġmomento": 3521,
      "Ġtags": 3522,
      "ĠdiretÃ³rio": 3523,
      "gou": 3524,
      "Ġ56": 3525,
      "ĠLÃŃn": 3526,
      "ĠLembre": 3527,
      "terÃŃs": 3528,
      "manentemente": 3529,
      "Ġfoto": 3530,
      "Ġfosse": 3531,
      "Ġsuper": 3532,
      "Ġsubca": 3533,
      "Ġsucesso": 3534,
      "ĠÃºnico": 3535,
      "ĠÃºteis": 3536,
      "Ġqualidades": 3537,
      "Ġvisa": 3538,
      "ĠvisÃŃveis": 3539,
      "Ġvisuais": 3540,
      "ĠversÃµes": 3541,
      "Ġconverta": 3542,
      "ĠprÃ³xim": 3543,
      "Ġfacilmente": 3544,
      "Ġinterface": 3545,
      "Ġinterval": 3546,
      "ĠrelÃ³gi": 3547,
      "Ġonda": 3548,
      "Ġtirar": 3549,
      "Ġdistribui": 3550,
      "ĠdispersÃ£o": 3551,
      "Ġdispla": 3552,
      "ĠInterpretador": 3553,
      "Ġlocalmente": 3554,
      "Ġlocalizado": 3555,
      "Ġlocalizada": 3556,
      "Ġfacilita": 3557,
      "Ġfacilidade": 3558,
      "chama": 3559,
      "chamÃ¡": 3560,
      "Ġcampo": 3561,
      "Ġacesso": 3562,
      "Ġacele": 3563,
      "Ġacess": 3564,
      "Ġaplicar": 3565,
      "ĠaplicaÃ§Ãµes": 3566,
      "ĠdecisÃ£o": 3567,
      "ĠdecisÃµes": 3568,
      "Ġperfei": 3569,
      "Ġpermane": 3570,
      "Ġpermanentemente": 3571,
      "Ġpadding": 3572,
      "Ġusadas": 3573,
      "Ġarmazenados": 3574,
      "fabrica": 3575,
      "finidamente": 3576,
      "nicamente": 3577,
      "pression": 3578,
      "saÃ§o": 3579,
      "torna": 3580,
      "toriais": 3581,
      "Ġtroca": 3582,
      "ticar": 3583,
      "ticas": 3584,
      "ticais": 3585,
      "Ġsabendo": 3586,
      "Ġsatisfa": 3587,
      "ĠÃ³timos": 3588,
      "ĠvÃ¡lida": 3589,
      "ĠvÃ¡cuo": 3590,
      "ĠvÃ¡lido": 3591,
      "Ġ(`\"\"": 3592,
      "Ġ(`%`": 3593,
      "Ġ(`''": 3594,
      "Ġ(`:`).": 3595,
      "Ġconteudo": 3596,
      "Ġcondicionais": 3597,
      "ĠprincÃŃ": 3598,
      "Ġinteragem": 3599,
      "Ġinteratividade": 3600,
      "harp": 3601,
      "Ġabrir": 3602,
      "Ġaquilo": 3603,
      "Ġprimitivo": 3604,
      "Ġprivacidade": 3605,
      "ĠMarte": 3606,
      "Ġteclas": 3607,
      "Ġtecnol": 3608,
      "Ġteclado": 3609,
      "Ġtecnicamente": 3610,
      "ĠmÃ©dico": 3611,
      "Ġfuncionar": 3612,
      "Ġfuncionais": 3613,
      "Ġfuncionou": 3614,
      "Ġobrigada": 3615,
      "Ġobrigat": 3616,
      "Ġgeral": 3617,
      "Ġdeclaradas": 3618,
      "Ġrepetir": 3619,
      "break": 3620,
      "range": 3621,
      "ĠanÃ¡l": 3622,
      "inamento": 3623,
      "Ġ1500": 3624,
      "rendizado": 3625,
      "catenaÃ§Ã£o": 3626,
      "Ġlet": 3627,
      "ĠrelaÃ§Ã£o": 3628,
      "Ġrelacionadas": 3629,
      "ĠrealizaÃ§Ãµes": 3630,
      "Ġremove": 3631,
      "Ġestilos": 3632,
      "Ġestilizar": 3633,
      "ĠestilizÃ¡": 3634,
      "ĠespaÃ§o": 3635,
      "ĠuseEffect": 3636,
      "turno": 3637,
      "Ġmandar": 3638,
      "ĠmanhÃ£": 3639,
      "Ġmanuais": 3640,
      "Ġcompleta": 3641,
      "dicionario": 3642,
      "Ġinteligente": 3643,
      "ĠinteligÃªncias": 3644,
      "ĠparÃ¡grafos": 3645,
      "ĠorganizaÃ§Ã£o": 3646,
      "Ġtrabalhe": 3647,
      "Ġvisualizar": 3648,
      "ĠvisualizaÃ§Ã£o": 3649,
      "ĠlÃ³gicas": 3650,
      "ĠmÃ©todos": 3651,
      "ĠcaracterÃŃs": 3652,
      "fera": 3653,
      "fego": 3654,
      "fechÃ¡vel": 3655,
      "Ġ60": 3656,
      "Ġlado": 3657,
      "ĠlaÃ§o": 3658,
      "Ġlang": 3659,
      "Ġroda": 3660,
      "Ġrode": 3661,
      "Ġrotina": 3662,
      "Ġequivale": 3663,
      "Ġatualizar": 3664,
      "ĠatualizaÃ§Ãµes": 3665,
      "Ġpessoais": 3666,
      "ĠsÃ³lida": 3667,
      "ĠÃ¡gua": 3668,
      "ĠDescan": 3669,
      "recem": 3670,
      "Ġrecuo": 3671,
      "Ġespeciais": 3672,
      "Ġinserindo": 3673,
      "Ġinspecion": 3674,
      "Ġinstall": 3675,
      "ĠinstalaÃ§Ã£o": 3676,
      "Ġinstalou": 3677,
      "Ġinstanciado": 3678,
      "ĠterÃ£o": 3679,
      "ĠterritÃ³rio": 3680,
      "Ġexclu": 3681,
      "Ġcontrolada": 3682,
      "ĠconcatenaÃ§Ã£o": 3683,
      "Ġconcatenate": 3684,
      "Ġpossa": 3685,
      "ĠpossÃŃveis": 3686,
      "ÃŃcia": 3687,
      "Ġcompilar": 3688,
      "Ġcompilando": 3689,
      "Ġaprenderem": 3690,
      "ĠrÃ¡pidas": 3691,
      "Ġtipografia": 3692,
      "Ġprincipalmente": 3693,
      "Ġquadrados": 3694,
      "atÃ³rio": 3695,
      "font": 3696,
      "Ġgrandes": 3697,
      "Ġcolor": 3698,
      "Ġcolunas": 3699,
      "ĠclÃ¡usula": 3700,
      "Ġauxili": 3701,
      "Ġadiciona": 3702,
      "Ġadicionados": 3703,
      "Ġadicionando": 3704,
      "Ġrepresentar": 3705,
      "Ġestude": 3706,
      "Ġestudar": 3707,
      "Ġinfinita": 3708,
      "Ġexibe": 3709,
      "Ġconstantes": 3710,
      "Ġseguro": 3711,
      "ĠseguranÃ§a": 3712,
      "Ġmaioria": 3713,
      "vidir": 3714,
      "Ġexecutada": 3715,
      "Ġtraduzir": 3716,
      "Ġresolvendo": 3717,
      "ĠresoluÃ§Ã£o": 3718,
      "Ġgostado": 3719,
      "Ġpergunta": 3720,
      "Ġarmazenamento": 3721,
      "ĠgerenciÃ¡": 3722,
      "Ġmodificada": 3723,
      "Ġmodificado": 3724,
      "ĠmodificaÃ§Ãµes": 3725,
      "Ġmodificados": 3726,
      "ĠespecÃŃfico": 3727,
      "ARY": 3728,
      "commit": 3729,
      "compilados": 3730,
      "export": 3731,
      "mÃ¡tica": 3732,
      "ulares": 3733,
      "Ġisolada": 3734,
      "Ġinit": 3735,
      "Ġimpression": 3736,
      "Ġcurs": 3737,
      "Ġcurta": 3738,
      "tivamente": 3739,
      "Ġfont": 3740,
      "Ġfonte": 3741,
      "Ġfeita": 3742,
      "ĠCommit": 3743,
      "ĠCompilador": 3744,
      "Ġsido": 3745,
      "ĠRefere": 3746,
      "ĠRepeat": 3747,
      "ĠRetorna": 3748,
      "Ġluzes": 3749,
      "Ġ`\"\"\"": 3750,
      "Ġindepen": 3751,
      "Ġindefinidamente": 3752,
      "Ġproduto": 3753,
      "ĠproduÃ§Ã£o": 3754,
      "Ġprodutivo": 3755,
      "Ġprodutiva": 3756,
      "Ġprodutividade": 3757,
      "Ġsegundo": 3758,
      "Ġcolabor": 3759,
      "Ġcolaterais": 3760,
      "Ġsource": 3761,
      "hecidos": 3762,
      "Ġpermitir": 3763,
      "Ġcorrigirem": 3764,
      "Ġforam": 3765,
      "Ġplanejar": 3766,
      "Ġchamada": 3767,
      "Ġtecnologias": 3768,
      "ĠinstruÃ§Ã£o": 3769,
      "ĠautomÃ¡tica": 3770,
      "Ġrepresentadas": 3771,
      "ĠespecÃŃficas": 3772,
      "Ġrecomendo": 3773,
      ");`.": 3774,
      "open": 3775,
      "strings": 3776,
      "Ġ}`.": 3777,
      "Ġ};`.": 3778,
      "Ġdigita": 3779,
      "Ġdigitando": 3780,
      "Ġatrai": 3781,
      "Ġfoco": 3782,
      "Ġfocando": 3783,
      "Ġoficialmente": 3784,
      "ĠÃŃmpar": 3785,
      "Ġfornecem": 3786,
      "Ġfornecendo": 3787,
      "Ġpassiva": 3788,
      "Ġlida": 3789,
      "Ġlidar": 3790,
      "Ġlidando": 3791,
      "Ġliderada": 3792,
      "Ġleia": 3793,
      "Ġbooleanas": 3794,
      "Ġescrita": 3795,
      "Ġescritos": 3796,
      "Ġescreve": 3797,
      "ĠEnvolve": 3798,
      "Ġinformal": 3799,
      "Ġinesperados": 3800,
      "Ġexata": 3801,
      "Ġexato": 3802,
      "Ġcontato": 3803,
      "Ġcontainer": 3804,
      "Ġconhecida": 3805,
      "Ġconhecido": 3806,
      "Ġconhecimento": 3807,
      "Ġconhecidos": 3808,
      "Ġmarca": 3809,
      "Ġmargem": 3810,
      "Ġtamanhos": 3811,
      "Ġtabela": 3812,
      "Ġcompartilhar": 3813,
      "Ġcompartilhando": 3814,
      "Ġportuguesa": 3815,
      "conteudo": 3816,
      "Ġhumana": 3817,
      "ĠhistÃ³ricos": 3818,
      "Ġmensagens": 3819,
      "Ġmoderno": 3820,
      "Ġmoderna": 3821,
      "ĠprÃ³prios": 3822,
      "ĠdisposiÃ§Ã£o": 3823,
      "Ġdispositivos": 3824,
      "Ġcapacidade": 3825,
      "ĠDeveloper": 3826,
      "Ġcalcula": 3827,
      "Ġinicia": 3828,
      "Ġiniciar": 3829,
      "Ġiniciantes": 3830,
      "Ġinicialmente": 3831,
      "Ġseguida": 3832,
      "Ġseguidos": 3833,
      "Ġrecomendado": 3834,
      "Ġeficientes": 3835,
      "127": 3836,
      "falso": 3837,
      "parte": 3838,
      "sorted": 3839,
      "Ã¢ncia": 3840,
      "Ã¢mica": 3841,
      "Ġguarda": 3842,
      "Ġguardo": 3843,
      "Ġguardar": 3844,
      "random": 3845,
      "Ġessas": 3846,
      "Ġcerca": 3847,
      "Ġcerteza": 3848,
      "Ġcerquilha": 3849,
      "Ġcasa": 3850,
      "Ġcansado": 3851,
      "ĠcansaÃ§o": 3852,
      "Ġdizer": 3853,
      "Ġatributos": 3854,
      "Ġacontecem": 3855,
      "Ġprazer": 3856,
      "Ġpratique": 3857,
      "Ġpraticar": 3858,
      "Ġpreferem": 3859,
      "Ġdecimal": 3860,
      "Ġdefinir": 3861,
      "Ġdefinida": 3862,
      "Ġdefinido": 3863,
      "interpretador": 3864,
      "interEx": 3865,
      "Ġfez": 3866,
      "Ġfecha": 3867,
      "Ġfechar": 3868,
      "ĠfÃ³run": 3869,
      "Ġfluentemente": 3870,
      "Ġfluxo": 3871,
      "Ġflutuante": 3872,
      "Ġstatic": 3873,
      "Ġsalvas": 3874,
      "Ġscripts": 3875,
      "ĠMain": 3876,
      "Ġquebra": 3877,
      "Ġnew": 3878,
      "Ġvolta": 3879,
      "Ġvoltado": 3880,
      "Ġvoltada": 3881,
      "ĠvÃŃrus": 3882,
      "Ġlimpar": 3883,
      "Ġ`#`": 3884,
      "Ġ`#`.": 3885,
      "Ġ`+`.": 3886,
      "Ġcombinar": 3887,
      "Ġcomuns": 3888,
      "Ġcomuniquem": 3889,
      "ĠcomunitÃ¡ria": 3890,
      "Ġcommits": 3891,
      "ĠPaulo": 3892,
      "ĠPacotes": 3893,
      "ĠParis": 3894,
      "Ġborracha": 3895,
      "Ġreutilizar": 3896,
      "ĠreutilizaÃ§Ã£o": 3897,
      "ĠreutilizÃ¡vel": 3898,
      "Ġestava": 3899,
      "Ġmultilinha": 3900,
      "Ġpopulares": 3901,
      "Ġseparada": 3902,
      "Ġseparados": 3903,
      "ĠArray": 3904,
      "Ġpressionar": 3905,
      "ĠQuantas": 3906,
      "Ġcompreensiva": 3907,
      "Ġdescanso": 3908,
      "Ġdescanse": 3909,
      "Ġdescansar": 3910,
      "Ġdescobrir": 3911,
      "Ġdescoberto": 3912,
      "Ġdescobriu": 3913,
      "plique": 3914,
      "Ġdatetime": 3915,
      "Ġvazia": 3916,
      "ĠorientaÃ§Ã£o": 3917,
      "Ġresultam": 3918,
      "Ġcorreta": 3919,
      "ĠcorreÃ§Ãµes": 3920,
      "Ġcorretamente": 3921,
      "Ġconversas": 3922,
      "Ġresponsivas": 3923,
      "Ġonly": 3924,
      "ĠlÃ³gico": 3925,
      "ĠtrÃ¡fego": 3926,
      "Ġanalisarem": 3927,
      "Ġgratuita": 3928,
      "ĠexibirÃ¡": 3929,
      "Ġindexados": 3930,
      "Ġcolaborativa": 3931,
      "ĠmanipulaÃ§Ã£o": 3932,
      "Ġmanipulando": 3933,
      "ĠmanipulaÃ§Ãµes": 3934,
      "ĠautomaÃ§Ã£o": 3935,
      "ĠÃŃndices": 3936,
      "Ġcapazes": 3937,
      "ĠnumÃ©rico": 3938,
      "ĠnumÃ©rica": 3939,
      "ĠnumÃ©ricos": 3940,
      "Ġprofissionais": 3941,
      "Ġacompanhado": 3942,
      "\"]`": 3943,
      "\"]`.": 3944,
      "++:": 3945,
      "ExperiÃªncia": 3946,
      "NullPo": 3947,
      "__(": 3948,
      "cls": 3949,
      "cerca": 3950,
      "limitado": 3951,
      "Ã´metros": 3952,
      "Ã´meno": 3953,
      "ĠKEY": 3954,
      "Ġtudo": 3955,
      "Ġtutoriais": 3956,
      "ĠheranÃ§a": 3957,
      "Ġheight": 3958,
      "Ġtreinou": 3959,
      "Ġtreinamento": 3960,
      "ĠimportÃ¢ncia": 3961,
      "Ġjuntar": 3962,
      "Ġjuntamente": 3963,
      "ĠtÃ©cnicas": 3964,
      "Ġevita": 3965,
      "Ġevitando": 3966,
      "Ġcheio": 3967,
      "Ġchegou": 3968,
      "Ġdorme": 3969,
      "Ġdormir": 3970,
      "Ġatingi": 3971,
      "Ġatividades": 3972,
      "Ġatribuir": 3973,
      "ĠatribuiÃ§Ã£o": 3974,
      "Ġpiada": 3975,
      "Ġpiadas": 3976,
      "Ġpuro": 3977,
      "Ġpuder": 3978,
      "Ġponto": 3979,
      "Ġpontos": 3980,
      "Ġdetectar": 3981,
      "Ġdeterminado": 3982,
      "Ġdetalhados": 3983,
      "Ġdetalhadas": 3984,
      "Ġunir": 3985,
      "Ġunidade": 3986,
      "ĠflexÃŃvel": 3987,
      "ĠConsole": 3988,
      "ĠConcatenaÃ§Ã£o": 3989,
      "ĠDicionÃ¡rios": 3990,
      "ĠDividir": 3991,
      "ĠDispersÃ£o": 3992,
      "ĠDisponha": 3993,
      "Ġnesta": 3994,
      "Ġnessa": 3995,
      "Ġnumeros": 3996,
      "Ġpausa": 3997,
      "Ġpausar": 3998,
      "Ġvoz": 3999,
      "Ġvoid": 4000,
      "Ġviola": 4001,
      "Ġvioleta": 4002,
      "Ġ`//`.": 4003,
      "Ġ`==`": 4004,
      "Ġ`===`": 4005,
      "Ã³gico": 4006,
      "ĠnotÃŃcia": 4007,
      "Ġregistra": 4008,
      "Ġregistrar": 4009,
      "Ġtestada": 4010,
      "Ġtestarem": 4011,
      "Ġexplique": 4012,
      "Ġexplicitamente": 4013,
      "Ġconsulta": 4014,
      "Ġconsultar": 4015,
      "Ġconectado": 4016,
      "Ġconectam": 4017,
      "Ġmolde": 4018,
      "ĠmolÃ©cu": 4019,
      "ĠmatemÃ¡tica": 4020,
      "ĠmatemÃ¡tico": 4021,
      "ĠcomeÃ§a": 4022,
      "Ġcometer": 4023,
      "ĠSaÃŃda": 4024,
      "ĠSaturno": 4025,
      "ĠStrings": 4026,
      "Ġencontrar": 4027,
      "Ġencontrados": 4028,
      "Ġintegrado": 4029,
      "ĠintegraÃ§Ã£o": 4030,
      "ĠBooleano": 4031,
      "Ġ2020": 4032,
      "Ġideal": 4033,
      "Ġideias": 4034,
      "ĠdisponÃŃvel": 4035,
      "Ġdisponibil": 4036,
      "ĠcabeÃ§alhos": 4037,
      "ĠcabeÃ§alho": 4038,
      "Ġ(`#`)": 4039,
      "Ġ(`#`).": 4040,
      "ĠprocessÃ¡": 4041,
      "Ġprocessando": 4042,
      "Ġcomplexas": 4043,
      "Ġcomplexos": 4044,
      "Ġorganizadas": 4045,
      "Ġsemelhante": 4046,
      "Ġsemelhantes": 4047,
      "ĠretornarÃ¡": 4048,
      "Ġpossuo": 4049,
      "Ġpossuem": 4050,
      "Ġexibida": 4051,
      "Ġexibidos": 4052,
      "Ġimpede": 4053,
      "Ġimpedindo": 4054,
      "Ġimprima": 4055,
      "Ġimprime": 4056,
      "...).": 4057,
      "Ġcombinam": 4058,
      "ĠcombinaÃ§Ã£o": 4059,
      "Ġmultiplicado": 4060,
      "Ġmultiplique": 4061,
      "Ġanteriores": 4062,
      "Ġfavorita": 4063,
      "Ġfavorito": 4064,
      "ĠsÃŃmbolo": 4065,
      "ĠsÃŃmbolos": 4066,
      "Ġmaravilhosa": 4067,
      "Ġmaravilhoso": 4068,
      "Ġdiversas": 4069,
      "Ġdiversos": 4070,
      "458": 4071,
      "792": 4072,
      "Acessar": 4073,
      "Aprendizado": 4074,
      "Carlos": 4075,
      "Clique": 4076,
      "DevTools": 4077,
      "Digite": 4078,
      "Ford": 4079,
      "Frames": 4080,
      "Funcao": 4081,
      "Gerenciador": 4082,
      "Indentation": 4083,
      "IndexError": 4084,
      "JavaScript": 4085,
      "Lucas": 4086,
      "Localhost": 4087,
      "Maior": 4088,
      "Meu": 4089,
      "Menor": 4090,
      "Porque": 4091,
      "Responsividade": 4092,
      "Silva": 4093,
      "TypeError": 4094,
      "WriteLine": 4095,
      "atributos": 4096,
      "banana": 4097,
      "blico": 4098,
      "branch": 4099,
      "cpp": 4100,
      "csharp": 4101,
      "cores": 4102,
      "criador": 4103,
      "clear": 4104,
      "color": 4105,
      "cÃºrio": 4106,
      "efeitos": 4107,
      "frutas": 4108,
      "ferÃªncia": 4109,
      "histÃ³rico": 4110,
      "icitaÃ§Ãµes": 4111,
      "iostream": 4112,
      "mÃ©todos": 4113,
      "numerada": 4114,
      "stify": 4115,
      "servidor": 4116,
      "simples": 4117,
      "subtÃŃtulo": 4118,
      "txt": 4119,
      "uraÃ§Ãµes": 4120,
      "useEffect": 4121,
      "Ġritmo": 4122,
      "Ġlaranja": 4123,
      "Ġgramaticais": 4124,
      "Ġignorando": 4125,
      "Ġjustify": 4126,
      "Ġlargura": 4127,
      "Ġtriste": 4128,
      "Ġtornar": 4129,
      "Ġgrafos": 4130,
      "ĠYourself": 4131,
      "radius": 4132,
      "Ġemail": 4133,
      "Ġentender": 4134,
      "Ġeconomiz": 4135,
      "Ġeventos": 4136,
      "Ġcelulares": 4137,
      "Ġcarro": 4138,
      "ĠcÃ³pia": 4139,
      "Ġcharset": 4140,
      "Ġciclo": 4141,
      "ĠcÃ¡lculo": 4142,
      "ĠdinÃ¢mica": 4143,
      "Ġadaptar": 4144,
      "Ġamadores": 4145,
      "Ġainda": 4146,
      "Ġaponta": 4147,
      "ĠaleatÃ³rio": 4148,
      "Ġaparecem": 4149,
      "ĠausÃªncia": 4150,
      "Ġaquela": 4151,
      "Ġafetar": 4152,
      "Ġaguardando": 4153,
      "Ġatmosfera": 4154,
      "ĠavanÃ§ados": 4155,
      "onacci": 4156,
      "Ġpesquise": 4157,
      "ĠpÃºblico": 4158,
      "Ġdepois": 4159,
      "Ġdevido": 4160,
      "Ġdebugar": 4161,
      "Ġdelimitar": 4162,
      "maÃ§Ã£": 4163,
      "include": 4164,
      "ĠfenÃ´meno": 4165,
      "Ġfloat": 4166,
      "Ġfilha": 4167,
      "estilizados": 4168,
      "estritamente": 4169,
      "ĠCuide": 4170,
      "ĠCabral": 4171,
      "ĠChrome": 4172,
      "Ġolhadinha": 4173,
      "ĠsolicitaÃ§Ãµes": 4174,
      "Ġselecionar": 4175,
      "ĠVÃªnus": 4176,
      "ĠVaticano": 4177,
      "ĠÃģlvares": 4178,
      "ĠMercÃºrio": 4179,
      "ĠMÃ¡quina": 4180,
      "ĠforÃ§ar": 4181,
      "ĠformulÃ¡rios": 4182,
      "ĠFibonacci": 4183,
      "ĠFlexbox": 4184,
      "ĠFirefox": 4185,
      "ĠDataFrames": 4186,
      "ĠRayleigh": 4187,
      "ĠRespire": 4188,
      "Ġassumir": 4189,
      "Ġassinaturas": 4190,
      "ĠquilÃ´metros": 4191,
      "Ġnenhum": 4192,
      "ĠOperadores": 4193,
      "Ġvemos": 4194,
      "Ġempacotar": 4195,
      "Ġempenho": 4196,
      "arquivo": 4197,
      "arredondado": 4198,
      "Ġlembro": 4199,
      "ĠPessoa": 4200,
      "ĠPriorizar": 4201,
      "ĠPRIMARY": 4202,
      "Ġbuscar": 4203,
      "Ġbackground": 4204,
      "Ġblue": 4205,
      "Ġbidimension": 4206,
      "Ġreconhecidos": 4207,
      "Ġrepita": 4208,
      "Ġreferir": 4209,
      "Ġreduzir": 4210,
      "Ġredundantes": 4211,
      "Ġescuro": 4212,
      "Ġesperando": 4213,
      "Ġestende": 4214,
      "Ġespalha": 4215,
      "ĠespÃ©cie": 4216,
      "ĠEclipse": 4217,
      "Ġinverter": 4218,
      "Ġinserir": 4219,
      "Ġincorretamente": 4220,
      "Ġinclui": 4221,
      "Ġinovadora": 4222,
      "ĠproporÃ§Ãµes": 4223,
      "Ġprotocolo": 4224,
      "ĠexpediÃ§Ã£o": 4225,
      "Ġexplicando": 4226,
      "ĠexpressÃµes": 4227,
      "Ġusuarios": 4228,
      "undefined": 4229,
      "Ġouvir": 4230,
      "Ġconceitos": 4231,
      "ĠconcentraÃ§Ã£o": 4232,
      "ĠconfiguraÃ§Ãµes": 4233,
      "Ġmuitos": 4234,
      "ĠminhaFuncao": 4235,
      "Ġmatrizes": 4236,
      "ĠAplicaÃ§Ãµes": 4237,
      "ĠAtualmente": 4238,
      "ĠAlternativamente": 4239,
      "Ġcotidianas": 4240,
      "ĠSystem": 4241,
      "ĠStudio": 4242,
      "ĠtabulaÃ§Ãµes": 4243,
      "Ġtablets": 4244,
      "Ġartificiais": 4245,
      "Ġenvolvidos": 4246,
      "Ġengenharia": 4247,
      "Ġencarregado": 4248,
      "Ġengloba": 4249,
      "Ġenxergar": 4250,
      "Ġencadear": 4251,
      "Ġdescrever": 4252,
      "Ġdesafios": 4253,
      "Ġdesordenada": 4254,
      "ĠNetuno": 4255,
      "ĠExibe": 4256,
      "ĠExperience": 4257,
      "verdadeiro": 4258,
      "versao": 4259,
      "Ġalguma": 4260,
      "ĠalcanÃ§ada": 4261,
      "modulo": 4262,
      "modules": 4263,
      "ĠBrasÃŃlia": 4264,
      "Ġnamespace": 4265,
      "Ġmecanismo": 4266,
      "ĠsistemÃ¡tico": 4267,
      "ĠparÃ¢metros": 4268,
      "content": 4269,
      "ĠParabÃ©ns": 4270,
      "Ġimediatamente": 4271,
      "Ġtradicionais": 4272,
      "ĠtransferÃªncia": 4273,
      "ĠdifÃŃceis": 4274,
      "ĠnomeCompleto": 4275,
      "Ġaprimorar": 4276,
      "ĠPortuguesa": 4277,
      "Ġrastrear": 4278,
      "ĠraciocÃŃnio": 4279,
      "Ġcorrigindo": 4280,
      "Ġgasoso": 4281,
      "ĠLÃŃngua": 4282,
      "Ġsuperconjunto": 4283,
      "Ġsubcampo": 4284,
      "ĠprÃ³ximos": 4285,
      "Ġintervalo": 4286,
      "ĠrelÃ³gio": 4287,
      "Ġdistribuir": 4288,
      "Ġdisplay": 4289,
      "Ġacelerar": 4290,
      "ĠacessÃ¡": 4291,
      "Ġperfeitamente": 4292,
      "Ġpermanecer": 4293,
      "fabricadas": 4294,
      "ĠsatisfaÃ§Ã£o": 4295,
      "Ġ(`\"\"\"`)": 4296,
      "Ġ(`%`),": 4297,
      "Ġ(`'''`)": 4298,
      "ĠprincÃŃpio": 4299,
      "ĠtecnolÃ³gico": 4300,
      "ĠobrigatÃ³ria": 4301,
      "breakpoint": 4302,
      "ĠanÃ¡lise": 4303,
      "ĠcaracterÃŃsticas": 4304,
      "ĠDescanse": 4305,
      "Ġinspecionarem": 4306,
      "ĠexcluÃŃdos": 4307,
      "Ġauxiliar": 4308,
      "Ġimpressionantes": 4309,
      "Ġcursor": 4310,
      "Ġ`\"\"\"`": 4311,
      "Ġindependente": 4312,
      "Ġcolaborem": 4313,
      "Ġpassivamente": 4314,
      "interException": 4315,
      "ĠfÃ³runs": 4316,
      "NullPointerException": 4317,
      "Ġatingida": 4318,
      "ĠmolÃ©culas": 4319,
      "Ġdisponibiliza": 4320,
      "IndentationError": 4321,
      "Ġeconomizando": 4322,
      "Ġbidimensionais": 4323
    },
    "merges": [
      [
        "r",
        "a"
      ],
      [
        "Ġ",
        "e"
      ],
      [
        "Ġ",
        "c"
      ],
      [
        "t",
        "e"
      ],
      [
        "Ġ",
        "d"
      ],
      [
        "l",
        "a"
      ],
      [
        "Ġ",
        "a"
      ],
      [
        "o",
        "r"
      ],
      [
        "o",
        "n"
      ],
      [
        "Ġ",
        "p"
      ],
      [
        "Ġ",
        "["
      ],
      [
        "E",
        "P"
      ],
      [
        "S",
        "EP"
      ],
      [
        "d",
        "a"
      ],
      [
        "Ġd",
        "e"
      ],
      [
        "t",
        "i"
      ],
      [
        "Ġ",
        "u"
      ],
      [
        "m",
        "a"
      ],
      [
        "e",
        "l"
      ],
      [
        "t",
        "a"
      ],
      [
        "i",
        "n"
      ],
      [
        "r",
        "i"
      ],
      [
        "m",
        "e"
      ],
      [
        "Ġ",
        "f"
      ],
      [
        "e",
        "s"
      ],
      [
        "i",
        "s"
      ],
      [
        "o",
        "c"
      ],
      [
        "Ġ",
        "C"
      ],
      [
        "i",
        "g"
      ],
      [
        "n",
        "te"
      ],
      [
        "Ġ",
        "o"
      ],
      [
        "q",
        "u"
      ],
      [
        "s",
        "s"
      ],
      [
        "Ġ",
        "s"
      ],
      [
        "a",
        "v"
      ],
      [
        "Ġ",
        "V"
      ],
      [
        "ri",
        "a"
      ],
      [
        "p",
        "o"
      ],
      [
        "Ġ",
        "U"
      ],
      [
        "Ġ",
        "Ã"
      ],
      [
        "Ġp",
        "e"
      ],
      [
        "Ġ",
        "M"
      ],
      [
        "Ġc",
        "ria"
      ],
      [
        "Ġ",
        "1"
      ],
      [
        "t",
        "ra"
      ],
      [
        "ĠV",
        "oc"
      ],
      [
        "d",
        "o"
      ],
      [
        "Ġf",
        "or"
      ],
      [
        "ti",
        "l"
      ],
      [
        "Ġ",
        "F"
      ],
      [
        "is",
        "te"
      ],
      [
        "Ġ",
        "D"
      ],
      [
        "Ġfor",
        "ma"
      ],
      [
        "ti",
        "on"
      ],
      [
        "S",
        "S"
      ],
      [
        "Ġpe",
        "la"
      ],
      [
        "la",
        "me"
      ],
      [
        "in",
        "i"
      ],
      [
        "Ġu",
        "til"
      ],
      [
        "ra",
        "tion"
      ],
      [
        "or",
        "po"
      ],
      [
        "ĠC",
        "orpo"
      ],
      [
        "ĠCorpo",
        "ration"
      ],
      [
        "ĠF",
        "lame"
      ],
      [
        "Ġa",
        "m"
      ],
      [
        "p",
        "on"
      ],
      [
        "la",
        "ra"
      ],
      [
        "el",
        "ta"
      ],
      [
        "Ġ",
        "R"
      ],
      [
        "Ġa",
        "ss"
      ],
      [
        "Ġcria",
        "da"
      ],
      [
        "iste",
        "nte"
      ],
      [
        "ĠD",
        "elta"
      ],
      [
        "Ġass",
        "istente"
      ],
      [
        "es",
        "pon"
      ],
      [
        "Ġam",
        "ig"
      ],
      [
        "r",
        "e"
      ],
      [
        "l",
        "tra"
      ],
      [
        "Ġc",
        "lara"
      ],
      [
        "ĠU",
        "ltra"
      ],
      [
        "ĠM",
        "ini"
      ],
      [
        "ĠR",
        "espon"
      ],
      [
        "A",
        "SS"
      ],
      [
        "S",
        "R"
      ],
      [
        "S",
        "Y"
      ],
      [
        "U",
        "SR"
      ],
      [
        "av",
        "el"
      ],
      [
        "ĠVoc",
        "e"
      ],
      [
        "Ġamig",
        "avel"
      ],
      [
        "ĠRespon",
        "da"
      ],
      [
        "SY",
        "S"
      ],
      [
        "t",
        "o"
      ],
      [
        "ĠÃ",
        "©"
      ],
      [
        "Ġ",
        "qu"
      ],
      [
        "o",
        "m"
      ],
      [
        "Ġqu",
        "e"
      ],
      [
        "Ġ",
        "n"
      ],
      [
        "r",
        "o"
      ],
      [
        "Ã",
        "§"
      ],
      [
        "a",
        "l"
      ],
      [
        "Ã",
        "¡"
      ],
      [
        "Ã",
        "£"
      ],
      [
        "Ġu",
        "m"
      ],
      [
        "Ġp",
        "a"
      ],
      [
        "Ġ",
        "O"
      ],
      [
        "Ã£",
        "o"
      ],
      [
        "e",
        "r"
      ],
      [
        "Ġ",
        "v"
      ],
      [
        "c",
        "a"
      ],
      [
        "Ġe",
        "m"
      ],
      [
        "a",
        "r"
      ],
      [
        "d",
        "e"
      ],
      [
        "c",
        "i"
      ],
      [
        "Ġ",
        "l"
      ],
      [
        "Ġ",
        "`"
      ],
      [
        "Ã",
        "ª"
      ],
      [
        "Ã",
        "³"
      ],
      [
        "Ġu",
        "ma"
      ],
      [
        "`",
        "`"
      ],
      [
        "Ã§",
        "Ã£o"
      ],
      [
        "Ġpa",
        "ra"
      ],
      [
        "Ġc",
        "om"
      ],
      [
        "Ġ",
        "P"
      ],
      [
        "a",
        "s"
      ],
      [
        "e",
        "m"
      ],
      [
        "e",
        "n"
      ],
      [
        "l",
        "o"
      ],
      [
        "i",
        "ca"
      ],
      [
        "Ġn",
        "o"
      ],
      [
        "Ġ",
        "b"
      ],
      [
        "l",
        "e"
      ],
      [
        "Ġ",
        "re"
      ],
      [
        "a",
        "n"
      ],
      [
        "me",
        "n"
      ],
      [
        "Ġ",
        "Ġ"
      ],
      [
        "Ġe",
        "s"
      ],
      [
        "Ġ",
        "E"
      ],
      [
        "Ġ",
        "in"
      ],
      [
        "Ġ",
        "te"
      ],
      [
        "o",
        "s"
      ],
      [
        "Ġ",
        "("
      ],
      [
        "om",
        "o"
      ],
      [
        "a",
        "do"
      ],
      [
        "Ġp",
        "ro"
      ],
      [
        "Ġe",
        "x"
      ],
      [
        "Ġu",
        "s"
      ],
      [
        "u",
        "n"
      ],
      [
        "d",
        "or"
      ],
      [
        "g",
        "ra"
      ],
      [
        "t",
        "u"
      ],
      [
        "Ġo",
        "u"
      ],
      [
        "Ġc",
        "on"
      ],
      [
        "t",
        "h"
      ],
      [
        "t",
        "r"
      ],
      [
        "ĠC",
        "omo"
      ],
      [
        "Ġ",
        "m"
      ],
      [
        "Ġd",
        "o"
      ],
      [
        "Ġp",
        "o"
      ],
      [
        "y",
        "th"
      ],
      [
        "Ġs",
        "e"
      ],
      [
        "yth",
        "on"
      ],
      [
        "i",
        "t"
      ],
      [
        "Ã³",
        "d"
      ],
      [
        "i",
        "f"
      ],
      [
        "p",
        "e"
      ],
      [
        "i",
        "z"
      ],
      [
        "``",
        "`"
      ],
      [
        "Ġc",
        "Ã³d"
      ],
      [
        "ĠcÃ³d",
        "ig"
      ],
      [
        "h",
        "a"
      ],
      [
        "Ġ",
        "ma"
      ],
      [
        "o",
        "l"
      ],
      [
        "em",
        "p"
      ],
      [
        "ĠcÃ³dig",
        "o"
      ],
      [
        "Ġ",
        "J"
      ],
      [
        "Ġ",
        "A"
      ],
      [
        "emp",
        "lo"
      ],
      [
        "Ġ",
        "\""
      ],
      [
        "`",
        "."
      ],
      [
        "c",
        "o"
      ],
      [
        "oc",
        "Ãª"
      ],
      [
        "Ġv",
        "ocÃª"
      ],
      [
        "ĠP",
        "ython"
      ],
      [
        "in",
        "g"
      ],
      [
        "c",
        "ri"
      ],
      [
        "i",
        "m"
      ],
      [
        "Ġc",
        "o"
      ],
      [
        "gra",
        "ma"
      ],
      [
        "v",
        "i"
      ],
      [
        "ri",
        "o"
      ],
      [
        "Ã",
        "Ń"
      ],
      [
        "p",
        "t"
      ],
      [
        "Ġp",
        "r"
      ],
      [
        "Ġ",
        "S"
      ],
      [
        "Ġpro",
        "grama"
      ],
      [
        "cri",
        "pt"
      ],
      [
        "Q",
        "u"
      ],
      [
        "Ġ",
        "ta"
      ],
      [
        "Ġ",
        "Qu"
      ],
      [
        "Ã",
        "©"
      ],
      [
        "Ġd",
        "i"
      ],
      [
        "to",
        "s"
      ],
      [
        "n",
        "do"
      ],
      [
        "Ġf",
        "a"
      ],
      [
        "if",
        "ica"
      ],
      [
        "v",
        "e"
      ],
      [
        "Ġ",
        "H"
      ],
      [
        "Ġa",
        "r"
      ],
      [
        "Ġpo",
        "de"
      ],
      [
        "Ã",
        "º"
      ],
      [
        "ig",
        "n"
      ],
      [
        "Ġcom",
        "p"
      ],
      [
        "c",
        "u"
      ],
      [
        "ado",
        "s"
      ],
      [
        "j",
        "e"
      ],
      [
        "u",
        "a"
      ],
      [
        "u",
        "i"
      ],
      [
        "me",
        "nte"
      ],
      [
        "ĠĠ",
        "Ġ"
      ],
      [
        "µ",
        "es"
      ],
      [
        "Ã",
        "µes"
      ],
      [
        "Ġp",
        "or"
      ],
      [
        "S",
        "cript"
      ],
      [
        "a",
        "da"
      ],
      [
        "r",
        "m"
      ],
      [
        "Ġe",
        "n"
      ],
      [
        "Ġde",
        "s"
      ],
      [
        "av",
        "a"
      ],
      [
        "ĠVoc",
        "Ãª"
      ],
      [
        "i",
        "te"
      ],
      [
        "p",
        "l"
      ],
      [
        "qu",
        "i"
      ],
      [
        "d",
        "i"
      ],
      [
        "r",
        "es"
      ],
      [
        "Ġs",
        "o"
      ],
      [
        "ci",
        "on"
      ],
      [
        "tr",
        "u"
      ],
      [
        "ĠJ",
        "ava"
      ],
      [
        "t",
        "Ã¡"
      ],
      [
        "Ġ",
        "="
      ],
      [
        "ĠH",
        "T"
      ],
      [
        "ign",
        "ifica"
      ],
      [
        "M",
        "L"
      ],
      [
        "h",
        "o"
      ],
      [
        "l",
        "Ã¡"
      ],
      [
        "Ġ",
        "G"
      ],
      [
        "da",
        "r"
      ],
      [
        "Ġs",
        "er"
      ],
      [
        "Ġs",
        "ignifica"
      ],
      [
        "Ġin",
        "te"
      ],
      [
        "n",
        "ci"
      ],
      [
        "Ġd",
        "ados"
      ],
      [
        "me",
        "ro"
      ],
      [
        "ĠJava",
        "Script"
      ],
      [
        "Ġd",
        "a"
      ],
      [
        "Ġf",
        "un"
      ],
      [
        "ĠHT",
        "ML"
      ],
      [
        "l",
        "i"
      ],
      [
        "Ġ",
        "N"
      ],
      [
        "ta",
        "r"
      ],
      [
        "ĠE",
        "x"
      ],
      [
        "ĠG",
        "it"
      ],
      [
        ")",
        "."
      ],
      [
        "a",
        "ra"
      ],
      [
        "g",
        "e"
      ],
      [
        "an",
        "do"
      ],
      [
        "tu",
        "ra"
      ],
      [
        "u",
        "l"
      ],
      [
        "v",
        "er"
      ],
      [
        "Ã§",
        "Ãµes"
      ],
      [
        "Ġl",
        "in"
      ],
      [
        "ĠEx",
        "emplo"
      ],
      [
        "o",
        "o"
      ],
      [
        "v",
        "ol"
      ],
      [
        "Ġa",
        "l"
      ],
      [
        "Ġse",
        "u"
      ],
      [
        "j",
        "u"
      ],
      [
        "m",
        "o"
      ],
      [
        "s",
        "o"
      ],
      [
        "v",
        "el"
      ],
      [
        "x",
        "to"
      ],
      [
        "Ġ",
        "I"
      ],
      [
        "da",
        "de"
      ],
      [
        "Ġa",
        "ju"
      ],
      [
        "ĠU",
        "m"
      ],
      [
        "Ġn",
        "Ãº"
      ],
      [
        "en",
        "vol"
      ],
      [
        "tru",
        "tura"
      ],
      [
        "ĠnÃº",
        "mero"
      ],
      [
        "(",
        ")"
      ],
      [
        "v",
        "o"
      ],
      [
        "Ġ",
        "B"
      ],
      [
        "Ġprograma",
        "Ã§Ã£o"
      ],
      [
        "ĠQu",
        "al"
      ],
      [
        "g",
        "em"
      ],
      [
        "Ġ",
        "2"
      ],
      [
        "Ġcria",
        "r"
      ],
      [
        "pe",
        "ra"
      ],
      [
        "Ġfa",
        "z"
      ],
      [
        "e",
        "cu"
      ],
      [
        "men",
        "to"
      ],
      [
        "Ġes",
        "trutura"
      ],
      [
        "Ġex",
        "emplo"
      ],
      [
        "Ġex",
        "ecu"
      ],
      [
        "Ġdes",
        "envol"
      ],
      [
        "do",
        "s"
      ],
      [
        "Ġn",
        "a"
      ],
      [
        "nci",
        "a"
      ],
      [
        "b",
        "u"
      ],
      [
        "c",
        "e"
      ],
      [
        "e",
        "nte"
      ],
      [
        "h",
        "e"
      ],
      [
        "s",
        "ta"
      ],
      [
        "Ġ",
        "'"
      ],
      [
        "Ġ",
        "me"
      ],
      [
        "Ġs",
        "iste"
      ],
      [
        "ĠÃ",
        "ī"
      ],
      [
        "Ġma",
        "is"
      ],
      [
        "ui",
        "to"
      ],
      [
        "s",
        "i"
      ],
      [
        "t",
        "re"
      ],
      [
        "Ġ",
        "T"
      ],
      [
        "Ġa",
        "s"
      ],
      [
        "ta",
        "dor"
      ],
      [
        "Ġpa",
        "r"
      ],
      [
        "Ġsiste",
        "ma"
      ],
      [
        "in",
        "t"
      ],
      [
        "ĠC",
        "SS"
      ],
      [
        "Ġo",
        "b"
      ],
      [
        "Ġn",
        "Ã£o"
      ],
      [
        "tr",
        "ing"
      ],
      [
        "Ġaju",
        "dar"
      ],
      [
        "e",
        "re"
      ],
      [
        "i",
        "b"
      ],
      [
        "i",
        "r"
      ],
      [
        "t",
        "ro"
      ],
      [
        "is",
        "ta"
      ],
      [
        "Ã§",
        "a"
      ],
      [
        "Ġcom",
        "o"
      ],
      [
        "Ġfun",
        "Ã§Ã£o"
      ],
      [
        "ĠN",
        "o"
      ],
      [
        "c",
        "on"
      ],
      [
        "f",
        "i"
      ],
      [
        "g",
        "u"
      ],
      [
        "p",
        "a"
      ],
      [
        "p",
        "i"
      ],
      [
        "s",
        "e"
      ],
      [
        "la",
        "r"
      ],
      [
        "ss",
        "o"
      ],
      [
        "Ġs",
        "im"
      ],
      [
        "re",
        "f"
      ],
      [
        "al",
        "or"
      ],
      [
        "Ãª",
        "ncia"
      ],
      [
        "ĠP",
        "ara"
      ],
      [
        "Ġus",
        "ar"
      ],
      [
        "ing",
        "ua"
      ],
      [
        "Ġco",
        "men"
      ],
      [
        "n",
        "o"
      ],
      [
        "t",
        "Ã©"
      ],
      [
        "u",
        "al"
      ],
      [
        "Ġv",
        "a"
      ],
      [
        "g",
        "in"
      ],
      [
        "n",
        "e"
      ],
      [
        "p",
        "u"
      ],
      [
        "Ġ",
        "h"
      ],
      [
        "Ġ",
        "i"
      ],
      [
        "Ġ",
        "or"
      ],
      [
        "Ġ",
        "tra"
      ],
      [
        "Ġ",
        "res"
      ],
      [
        "te",
        "n"
      ],
      [
        "Ġd",
        "if"
      ],
      [
        "ma",
        "ndo"
      ],
      [
        "ta",
        "mente"
      ],
      [
        "Ġo",
        "pera"
      ],
      [
        "Ġl",
        "oo"
      ],
      [
        "Ġno",
        "me"
      ],
      [
        "Ġco",
        "mando"
      ],
      [
        "Ġdi",
        "a"
      ],
      [
        "pl",
        "ica"
      ],
      [
        "Ġfaz",
        "er"
      ],
      [
        "ingua",
        "gem"
      ],
      [
        "Ġloo",
        "p"
      ],
      [
        "a",
        "is"
      ],
      [
        "f",
        "t"
      ],
      [
        "f",
        "or"
      ],
      [
        "j",
        "a"
      ],
      [
        "Ġa",
        "p"
      ],
      [
        "Ġpe",
        "rm"
      ],
      [
        "Ã¡",
        "gin"
      ],
      [
        "ĠO",
        "lÃ¡"
      ],
      [
        "Ġv",
        "e"
      ],
      [
        "Ġv",
        "alor"
      ],
      [
        "Ġl",
        "ista"
      ],
      [
        "Ġte",
        "rm"
      ],
      [
        "Ġte",
        "xto"
      ],
      [
        "Ġm",
        "uito"
      ],
      [
        "pl",
        "es"
      ],
      [
        "Ġcomen",
        "tÃ¡"
      ],
      [
        "Ġdif",
        "ere"
      ],
      [
        "<",
        "/"
      ],
      [
        "a",
        "d"
      ],
      [
        "c",
        "k"
      ],
      [
        "d",
        "er"
      ],
      [
        "n",
        "Ã§a"
      ],
      [
        "p",
        "or"
      ],
      [
        "p",
        "ython"
      ],
      [
        "t",
        "ri"
      ],
      [
        "Ġ",
        "ge"
      ],
      [
        "Ġo",
        "s"
      ],
      [
        "Ġutil",
        "iz"
      ],
      [
        "Ã¡",
        "vel"
      ],
      [
        "dor",
        "es"
      ],
      [
        "Ġsim",
        "ples"
      ],
      [
        "u",
        "s"
      ],
      [
        "Ġ",
        "3"
      ],
      [
        "Ġ",
        "w"
      ],
      [
        "Ġ",
        "ho"
      ],
      [
        "te",
        "ra"
      ],
      [
        "Ġp",
        "Ã¡gin"
      ],
      [
        "Ã¡",
        "rio"
      ],
      [
        "Ġ`",
        "<"
      ],
      [
        "ĠP",
        "or"
      ],
      [
        "Ġb",
        "an"
      ],
      [
        "men",
        "tos"
      ],
      [
        "Ġes",
        "tÃ¡"
      ],
      [
        "Ġpro",
        "je"
      ],
      [
        "un",
        "do"
      ],
      [
        "Ġar",
        "qui"
      ],
      [
        "Ġen",
        "tre"
      ],
      [
        "Ġso",
        "ft"
      ],
      [
        "Ġser",
        "ve"
      ],
      [
        "Ġlin",
        "ha"
      ],
      [
        "Ġsoft",
        "w"
      ],
      [
        "l",
        "oc"
      ],
      [
        "Ġe",
        "r"
      ],
      [
        "Ġe",
        "le"
      ],
      [
        "ri",
        "g"
      ],
      [
        "nte",
        "s"
      ],
      [
        "Ã³",
        "rio"
      ],
      [
        "an",
        "to"
      ],
      [
        "tu",
        "al"
      ],
      [
        "ĠJ",
        "S"
      ],
      [
        "Ġcomp",
        "u"
      ],
      [
        "Ġal",
        "tera"
      ],
      [
        "fi",
        "ci"
      ],
      [
        ">",
        "`"
      ],
      [
        "e",
        "b"
      ],
      [
        "j",
        "s"
      ],
      [
        "n",
        "a"
      ],
      [
        "s",
        "it"
      ],
      [
        "v",
        "a"
      ],
      [
        "Ġ",
        "ra"
      ],
      [
        "Ġ",
        "to"
      ],
      [
        "Ġ",
        "men"
      ],
      [
        "Ġc",
        "or"
      ],
      [
        "in",
        "al"
      ],
      [
        "av",
        "e"
      ],
      [
        "ĠV",
        "e"
      ],
      [
        "po",
        "sit"
      ],
      [
        "ĠU",
        "ma"
      ],
      [
        "ĠM",
        "e"
      ],
      [
        "Ġl",
        "inguagem"
      ],
      [
        "Ġb",
        "as"
      ],
      [
        "Ġb",
        "loc"
      ],
      [
        "Ġre",
        "posit"
      ],
      [
        "ĠE",
        "s"
      ],
      [
        "Ġus",
        "ando"
      ],
      [
        "()",
        "`."
      ],
      [
        "Ġdesenvol",
        "vi"
      ],
      [
        "Ġva",
        "ri"
      ],
      [
        "Ġve",
        "z"
      ],
      [
        "ĠcomentÃ¡",
        "rio"
      ],
      [
        "Ġw",
        "eb"
      ],
      [
        "Ġer",
        "ro"
      ],
      [
        "Ġcompu",
        "tador"
      ],
      [
        "0",
        "0"
      ],
      [
        "a",
        "re"
      ],
      [
        "b",
        "o"
      ],
      [
        "c",
        "h"
      ],
      [
        "g",
        "i"
      ],
      [
        "h",
        "as"
      ],
      [
        "o",
        "te"
      ],
      [
        "s",
        "ar"
      ],
      [
        "t",
        "s"
      ],
      [
        "Ġ",
        "+"
      ],
      [
        "Ġ",
        "<"
      ],
      [
        "Ġ",
        "g"
      ],
      [
        "Ġ",
        "{"
      ],
      [
        "Ġd",
        "u"
      ],
      [
        "la",
        "s"
      ],
      [
        "da",
        "s"
      ],
      [
        "ti",
        "vo"
      ],
      [
        "ta",
        "s"
      ],
      [
        "ss",
        "e"
      ],
      [
        "de",
        "n"
      ],
      [
        "Ġl",
        "oc"
      ],
      [
        "en",
        "d"
      ],
      [
        "Ġte",
        "m"
      ],
      [
        "Ġte",
        "n"
      ],
      [
        "Ġm",
        "o"
      ],
      [
        "iz",
        "ar"
      ],
      [
        "Ġta",
        "g"
      ],
      [
        "Ġta",
        "ref"
      ],
      [
        "Ġdi",
        "re"
      ],
      [
        "cion",
        "al"
      ],
      [
        "li",
        "ote"
      ],
      [
        "Ġob",
        "je"
      ],
      [
        "ib",
        "liote"
      ],
      [
        "Ġperm",
        "ite"
      ],
      [
        "ibliote",
        "ca"
      ],
      [
        "O",
        "N"
      ],
      [
        "d",
        "u"
      ],
      [
        "g",
        "o"
      ],
      [
        "o",
        "a"
      ],
      [
        "Ġ",
        "5"
      ],
      [
        "Ġ",
        "L"
      ],
      [
        "te",
        "r"
      ],
      [
        "te",
        "xto"
      ],
      [
        "ma",
        "n"
      ],
      [
        "Ġf",
        "o"
      ],
      [
        "es",
        "so"
      ],
      [
        "Ġs",
        "u"
      ],
      [
        "ĠÃ",
        "º"
      ],
      [
        "Ġqu",
        "al"
      ],
      [
        "Ġv",
        "is"
      ],
      [
        "Ġv",
        "er"
      ],
      [
        "Ġb",
        "iblioteca"
      ],
      [
        "Ġus",
        "ado"
      ],
      [
        "Ġcon",
        "ver"
      ],
      [
        "Ġpo",
        "sso"
      ],
      [
        "im",
        "por"
      ],
      [
        "Ġpr",
        "Ã³"
      ],
      [
        "Ġfa",
        "ci"
      ],
      [
        "Ġinte",
        "r"
      ],
      [
        "Ġdesenvol",
        "ve"
      ],
      [
        "Ġopera",
        "dor"
      ],
      [
        "Ġdifere",
        "nÃ§a"
      ],
      [
        "Ġban",
        "co"
      ],
      [
        "ĠJS",
        "ON"
      ],
      [
        "ĠVe",
        "ja"
      ],
      [
        "Ġreposit",
        "Ã³rio"
      ],
      [
        "(",
        "\""
      ],
      [
        "O",
        "lÃ¡"
      ],
      [
        "e",
        "i"
      ],
      [
        "h",
        "t"
      ],
      [
        "i",
        "ma"
      ],
      [
        "i",
        "ro"
      ],
      [
        "i",
        "co"
      ],
      [
        "o",
        "u"
      ],
      [
        "o",
        "de"
      ],
      [
        "p",
        "er"
      ],
      [
        "u",
        "Ã¡rio"
      ],
      [
        "Ġ",
        "8"
      ],
      [
        "Ġ",
        "r"
      ],
      [
        "Ġ",
        "on"
      ],
      [
        "Ġ",
        "ti"
      ],
      [
        "Ġ",
        "ig"
      ],
      [
        "Ġd",
        "is"
      ],
      [
        "ri",
        "os"
      ],
      [
        "Ġs",
        "tring"
      ],
      [
        "ĠÃ",
        "ł"
      ],
      [
        "Ãª",
        "s"
      ],
      [
        "le",
        "t"
      ],
      [
        "ĠE",
        "le"
      ],
      [
        "ul",
        "l"
      ],
      [
        "ĠI",
        "nte"
      ],
      [
        "Ġterm",
        "inal"
      ],
      [
        "Ġsoftw",
        "are"
      ],
      [
        "Ġloc",
        "al"
      ],
      [
        "Ġfaci",
        "li"
      ],
      [
        "Ġig",
        "ual"
      ],
      [
        "\"",
        ")"
      ],
      [
        "Q",
        "L"
      ],
      [
        "a",
        "ck"
      ],
      [
        "b",
        "e"
      ],
      [
        "c",
        "omo"
      ],
      [
        "c",
        "ha"
      ],
      [
        "r",
        "on"
      ],
      [
        "u",
        "b"
      ],
      [
        "z",
        "en"
      ],
      [
        "Ġc",
        "a"
      ],
      [
        "te",
        "s"
      ],
      [
        "Ġa",
        "c"
      ],
      [
        "Ġa",
        "o"
      ],
      [
        "Ġa",
        "plica"
      ],
      [
        "Ġde",
        "c"
      ],
      [
        "ma",
        "zen"
      ],
      [
        "qu",
        "e"
      ],
      [
        "qu",
        "er"
      ],
      [
        "Ġs",
        "ua"
      ],
      [
        "Ġpe",
        "r"
      ],
      [
        "to",
        "u"
      ],
      [
        "Ġpa",
        "d"
      ],
      [
        "Ġl",
        "Ã³"
      ],
      [
        "en",
        "do"
      ],
      [
        "Ġre",
        "pe"
      ],
      [
        "ĠE",
        "m"
      ],
      [
        "Ġus",
        "ada"
      ],
      [
        "ĠS",
        "e"
      ],
      [
        "Ġar",
        "mazen"
      ],
      [
        "ĠB",
        "oa"
      ],
      [
        "Ġarqui",
        "vo"
      ],
      [
        "fici",
        "al"
      ],
      [
        "Ġbloc",
        "o"
      ],
      [
        "Ġvari",
        "Ã¡vel"
      ],
      [
        "Ġvez",
        "es"
      ],
      [
        "Ġdire",
        "tamente"
      ],
      [
        "\"",
        ":"
      ],
      [
        ")",
        ","
      ],
      [
        "b",
        "al"
      ],
      [
        "f",
        "a"
      ],
      [
        "f",
        "ini"
      ],
      [
        "f",
        "ica"
      ],
      [
        "l",
        "ig"
      ],
      [
        "m",
        "l"
      ],
      [
        "n",
        "ica"
      ],
      [
        "p",
        "res"
      ],
      [
        "s",
        "a"
      ],
      [
        "t",
        "or"
      ],
      [
        "x",
        "ima"
      ],
      [
        "³",
        "ti"
      ],
      [
        "Ġ",
        "tr"
      ],
      [
        "ra",
        "s"
      ],
      [
        "ra",
        "y"
      ],
      [
        "Ġp",
        "la"
      ],
      [
        "ti",
        "ca"
      ],
      [
        "ma",
        "r"
      ],
      [
        "ta",
        "l"
      ],
      [
        "ta",
        "do"
      ],
      [
        "in",
        "e"
      ],
      [
        "Ġs",
        "a"
      ],
      [
        "ĠÃ",
        "³ti"
      ],
      [
        "er",
        "ra"
      ],
      [
        "Ġv",
        "Ã¡"
      ],
      [
        "Ġb",
        "Ã¡"
      ],
      [
        "ĠE",
        "u"
      ],
      [
        "Ġ(",
        "`"
      ],
      [
        "Ġus",
        "uÃ¡rio"
      ],
      [
        "Ġcon",
        "te"
      ],
      [
        "Ġcon",
        "di"
      ],
      [
        "ĠA",
        "tÃ©"
      ],
      [
        "Ġpr",
        "in"
      ],
      [
        "Ġinte",
        "ra"
      ],
      [
        "ĠnÃºmero",
        "s"
      ],
      [
        "Ġexecu",
        "Ã§Ã£o"
      ],
      [
        "no",
        "me"
      ],
      [
        "pu",
        "ra"
      ],
      [
        "tri",
        "bu"
      ],
      [
        "Ġpad",
        "r"
      ],
      [
        "\"",
        ","
      ],
      [
        "H",
        "ub"
      ],
      [
        "b",
        "le"
      ],
      [
        "c",
        "os"
      ],
      [
        "g",
        "en"
      ],
      [
        "h",
        "i"
      ],
      [
        "h",
        "ar"
      ],
      [
        "i",
        "dade"
      ],
      [
        "p",
        "ri"
      ],
      [
        "s",
        "Ã£o"
      ],
      [
        "u",
        "m"
      ],
      [
        "Ġ",
        "0"
      ],
      [
        "Ġc",
        "ha"
      ],
      [
        "Ġa",
        "b"
      ],
      [
        "Ġa",
        "qui"
      ],
      [
        "Ġp",
        "ri"
      ],
      [
        "ĠM",
        "ar"
      ],
      [
        "Ġqu",
        "ando"
      ],
      [
        "Ã§",
        "o"
      ],
      [
        "Ġno",
        "ite"
      ],
      [
        "Ġte",
        "c"
      ],
      [
        "gra",
        "f"
      ],
      [
        "Ġm",
        "Ã©"
      ],
      [
        "Ġm",
        "undo"
      ],
      [
        "iz",
        "ado"
      ],
      [
        "Ġpr",
        "int"
      ],
      [
        "Ġar",
        "ray"
      ],
      [
        "Ġfun",
        "cion"
      ],
      [
        "ĠGit",
        "Hub"
      ],
      [
        "Ġlin",
        "has"
      ],
      [
        "so",
        "le"
      ],
      [
        "bu",
        "g"
      ],
      [
        "Ġob",
        "rig"
      ],
      [
        "for",
        "ma"
      ],
      [
        "Ġge",
        "ra"
      ],
      [
        "Ġge",
        "re"
      ],
      [
        "ĠpÃ¡gin",
        "a"
      ],
      [
        "Ġproje",
        "to"
      ],
      [
        "Ġaltera",
        "Ã§Ãµes"
      ],
      [
        "Ġdesenvolvi",
        "mento"
      ],
      [
        "Ġtaref",
        "as"
      ],
      [
        "Ġqual",
        "quer"
      ],
      [
        "impor",
        "t"
      ],
      [
        "Ġdec",
        "lara"
      ],
      [
        "Ġrepe",
        "ti"
      ],
      [
        "Ġprin",
        "ci"
      ],
      [
        "/",
        "/"
      ],
      [
        "b",
        "i"
      ],
      [
        "b",
        "re"
      ],
      [
        "g",
        "ica"
      ],
      [
        "g",
        "an"
      ],
      [
        "g",
        "it"
      ],
      [
        "g",
        "ua"
      ],
      [
        "h",
        "os"
      ],
      [
        "i",
        "o"
      ],
      [
        "i",
        "ra"
      ],
      [
        "j",
        "un"
      ],
      [
        "p",
        "al"
      ],
      [
        "v",
        "os"
      ],
      [
        "Ġ",
        "4"
      ],
      [
        "Ġ",
        "W"
      ],
      [
        "ra",
        "n"
      ],
      [
        "Ġe",
        "u"
      ],
      [
        "Ġc",
        "h"
      ],
      [
        "Ġc",
        "ara"
      ],
      [
        "Ġd",
        "oc"
      ],
      [
        "la",
        "ro"
      ],
      [
        "la",
        "sse"
      ],
      [
        "Ġa",
        "n"
      ],
      [
        "ta",
        "Ã§Ã£o"
      ],
      [
        "in",
        "a"
      ],
      [
        "in",
        "u"
      ],
      [
        "Ġf",
        "erra"
      ],
      [
        "ĠC",
        "laro"
      ],
      [
        "qu",
        "Ãªncia"
      ],
      [
        "Ġs",
        "Ã£o"
      ],
      [
        "ria",
        "s"
      ],
      [
        "Ġ1",
        "5"
      ],
      [
        "ĠD",
        "e"
      ],
      [
        "re",
        "n"
      ],
      [
        "Ã¡",
        "graf"
      ],
      [
        "Ġv",
        "ir"
      ],
      [
        "ca",
        "ten"
      ],
      [
        "Ġl",
        "e"
      ],
      [
        "Ġ`",
        "."
      ],
      [
        "Ġre",
        "la"
      ],
      [
        "Ġre",
        "al"
      ],
      [
        "Ġre",
        "mo"
      ],
      [
        "Ġes",
        "til"
      ],
      [
        "Ġes",
        "pa"
      ],
      [
        "Ġpro",
        "ble"
      ],
      [
        "Ġus",
        "e"
      ],
      [
        "tu",
        "r"
      ],
      [
        "Ġse",
        "quÃªncia"
      ],
      [
        "Ġma",
        "n"
      ],
      [
        "Ġpr",
        "oc"
      ],
      [
        "ĠS",
        "QL"
      ],
      [
        "Ġcomp",
        "le"
      ],
      [
        "di",
        "cion"
      ],
      [
        "Ġinte",
        "lig"
      ],
      [
        "Ġlin",
        "k"
      ],
      [
        "Ġexecu",
        "tar"
      ],
      [
        "he",
        "ad"
      ],
      [
        "si",
        "on"
      ],
      [
        "Ġpar",
        "Ã¡graf"
      ],
      [
        "ĠNo",
        "de"
      ],
      [
        "Ġor",
        "gan"
      ],
      [
        "Ġtra",
        "bal"
      ],
      [
        "ten",
        "d"
      ],
      [
        "Ġho",
        "je"
      ],
      [
        "ĠpÃ¡gin",
        "as"
      ],
      [
        "js",
        "on"
      ],
      [
        "Ġmen",
        "or"
      ],
      [
        "Ġbas",
        "e"
      ],
      [
        "Ġmo",
        "d"
      ],
      [
        "Ġobje",
        "to"
      ],
      [
        "Ġsu",
        "as"
      ],
      [
        "Ġvis",
        "ual"
      ],
      [
        "ĠprÃ³",
        "xima"
      ],
      [
        "ht",
        "ml"
      ],
      [
        "Ġon",
        "de"
      ],
      [
        "ron",
        "tend"
      ],
      [
        "ĠlÃ³",
        "gica"
      ],
      [
        "fa",
        "ce"
      ],
      [
        "gen",
        "s"
      ],
      [
        "hi",
        "le"
      ],
      [
        "ĠmÃ©",
        "to"
      ],
      [
        "Ġrepeti",
        "Ã§Ã£o"
      ],
      [
        "bi",
        "ente"
      ],
      [
        "Ġcara",
        "c"
      ],
      [
        "Ġdoc",
        "u"
      ],
      [
        "Ġferra",
        "men"
      ],
      [
        "Ġvir",
        "tual"
      ],
      [
        "Ġproble",
        "ma"
      ],
      [
        "P",
        "I"
      ],
      [
        "`",
        ")"
      ],
      [
        "c",
        "t"
      ],
      [
        "c",
        "re"
      ],
      [
        "c",
        "ÃŃ"
      ],
      [
        "f",
        "e"
      ],
      [
        "g",
        "a"
      ],
      [
        "i",
        "or"
      ],
      [
        "p",
        "r"
      ],
      [
        "p",
        "as"
      ],
      [
        "r",
        "face"
      ],
      [
        "s",
        "ica"
      ],
      [
        "u",
        "g"
      ],
      [
        "u",
        "lo"
      ],
      [
        "u",
        "mero"
      ],
      [
        "v",
        "ar"
      ],
      [
        "w",
        "hile"
      ],
      [
        "x",
        "tos"
      ],
      [
        "y",
        "pe"
      ],
      [
        "z",
        "ul"
      ],
      [
        "Ġ",
        "6"
      ],
      [
        "Ġ",
        "9"
      ],
      [
        "Ġ",
        "la"
      ],
      [
        "Ġ",
        "ro"
      ],
      [
        "Ġe",
        "qui"
      ],
      [
        "la",
        "v"
      ],
      [
        "Ġa",
        "tual"
      ],
      [
        "or",
        "re"
      ],
      [
        "Ġp",
        "esso"
      ],
      [
        "Ġde",
        "pura"
      ],
      [
        "ti",
        "ficial"
      ],
      [
        "el",
        "o"
      ],
      [
        "ta",
        "ck"
      ],
      [
        "es",
        "sar"
      ],
      [
        "Ġs",
        "Ã³"
      ],
      [
        "Ġs",
        "em"
      ],
      [
        "Ġs",
        "ite"
      ],
      [
        "av",
        "as"
      ],
      [
        "ĠÃ",
        "¡"
      ],
      [
        "ĠM",
        "uito"
      ],
      [
        "do",
        "w"
      ],
      [
        "ĠF",
        "ico"
      ],
      [
        "ĠD",
        "es"
      ],
      [
        "re",
        "c"
      ],
      [
        "Ġqu",
        "ad"
      ],
      [
        "Ġn",
        "ave"
      ],
      [
        "ro",
        "un"
      ],
      [
        "Ã¡",
        "pi"
      ],
      [
        "Ġpa",
        "lav"
      ],
      [
        "en",
        "ta"
      ],
      [
        "en",
        "as"
      ],
      [
        "lo",
        "g"
      ],
      [
        "Ġre",
        "cu"
      ],
      [
        "Ġre",
        "tor"
      ],
      [
        "Ġes",
        "pe"
      ],
      [
        "ĠE",
        "la"
      ],
      [
        "Ġin",
        "s"
      ],
      [
        "Ġin",
        "sta"
      ],
      [
        "Ġte",
        "r"
      ],
      [
        "Ġte",
        "xtos"
      ],
      [
        "Ġpro",
        "pri"
      ],
      [
        "Ġex",
        "c"
      ],
      [
        "Ġus",
        "a"
      ],
      [
        "Ġcon",
        "tro"
      ],
      [
        "Ġcon",
        "caten"
      ],
      [
        "Ġpo",
        "ss"
      ],
      [
        "ĠA",
        "qui"
      ],
      [
        "ĠA",
        "PI"
      ],
      [
        "ÃŃ",
        "ci"
      ],
      [
        "ÃŃ",
        "vel"
      ],
      [
        "ĠS",
        "tack"
      ],
      [
        "ĠQu",
        "anto"
      ],
      [
        "Ġcomp",
        "i"
      ],
      [
        "Ġser",
        "vi"
      ],
      [
        "ul",
        "ta"
      ],
      [
        "ĠT",
        "cha"
      ],
      [
        "Ġas",
        "pas"
      ],
      [
        "Ġpar",
        "te"
      ],
      [
        "Ġor",
        "den"
      ],
      [
        "Ġap",
        "ren"
      ],
      [
        "Ġap",
        "enas"
      ],
      [
        "du",
        "z"
      ],
      [
        "Ġr",
        "Ã¡pi"
      ],
      [
        "Ġti",
        "po"
      ],
      [
        "ack",
        "end"
      ],
      [
        "ĠvÃ¡",
        "rias"
      ],
      [
        "ĠbÃ¡",
        "sica"
      ],
      [
        "Ġpadr",
        "Ã£o"
      ],
      [
        "Ġobrig",
        "ado"
      ],
      [
        "Ġprinci",
        "pal"
      ],
      [
        "tur",
        "n"
      ],
      [
        "ĠparÃ¡graf",
        "o"
      ],
      [
        "ĠmÃ©to",
        "do"
      ],
      [
        "Ġcarac",
        "te"
      ],
      [
        "pr",
        "int"
      ],
      [
        "avas",
        "cript"
      ],
      [
        "Ġquad",
        "ra"
      ],
      [
        "Ġnave",
        "ga"
      ],
      [
        "roun",
        "d"
      ],
      [
        "Ġpropri",
        "e"
      ],
      [
        "ĠTcha",
        "u"
      ],
      [
        "!",
        "\")"
      ],
      [
        "D",
        "E"
      ],
      [
        "S",
        "tring"
      ],
      [
        "a",
        "t"
      ],
      [
        "b",
        "Ã©"
      ],
      [
        "d",
        "y"
      ],
      [
        "d",
        "es"
      ],
      [
        "f",
        "on"
      ],
      [
        "g",
        "l"
      ],
      [
        "g",
        "or"
      ],
      [
        "g",
        "un"
      ],
      [
        "h",
        "Ã£"
      ],
      [
        "j",
        "o"
      ],
      [
        "j",
        "avascript"
      ],
      [
        "l",
        "u"
      ],
      [
        "n",
        "tro"
      ],
      [
        "p",
        "las"
      ],
      [
        "r",
        "de"
      ],
      [
        "s",
        "el"
      ],
      [
        "u",
        "do"
      ],
      [
        "v",
        "em"
      ],
      [
        "x",
        "e"
      ],
      [
        "Ġ",
        "7"
      ],
      [
        "Ġ",
        "gra"
      ],
      [
        "Ġ",
        "ite"
      ],
      [
        "ra",
        "me"
      ],
      [
        "ra",
        "si"
      ],
      [
        "Ġc",
        "al"
      ],
      [
        "Ġc",
        "ol"
      ],
      [
        "Ġc",
        "lÃ¡"
      ],
      [
        "Ġc",
        "lasse"
      ],
      [
        "Ġd",
        "os"
      ],
      [
        "la",
        "dor"
      ],
      [
        "Ġa",
        "u"
      ],
      [
        "Ġa",
        "tÃ©"
      ],
      [
        "Ġa",
        "dicion"
      ],
      [
        "or",
        "ta"
      ],
      [
        "on",
        "s"
      ],
      [
        "Ġp",
        "rec"
      ],
      [
        "Ġde",
        "f"
      ],
      [
        "Ġde",
        "ntro"
      ],
      [
        "el",
        "ente"
      ],
      [
        "ta",
        "ndo"
      ],
      [
        "ta",
        "xe"
      ],
      [
        "in",
        "ha"
      ],
      [
        "in",
        "taxe"
      ],
      [
        "ri",
        "r"
      ],
      [
        "is",
        "t"
      ],
      [
        "is",
        "ar"
      ],
      [
        "oc",
        "ar"
      ],
      [
        "ĠC",
        "ode"
      ],
      [
        "qu",
        "anto"
      ],
      [
        "Ġs",
        "intaxe"
      ],
      [
        "re",
        "d"
      ],
      [
        "Ã¡",
        "qu"
      ],
      [
        "er",
        "to"
      ],
      [
        "ca",
        "n"
      ],
      [
        "ĠP",
        "ro"
      ],
      [
        "as",
        "ca"
      ],
      [
        "le",
        "an"
      ],
      [
        "Ġre",
        "pres"
      ],
      [
        "Ġre",
        "turn"
      ],
      [
        "an",
        "gua"
      ],
      [
        "men",
        "t"
      ],
      [
        "Ġes",
        "tu"
      ],
      [
        "Ġin",
        "fini"
      ],
      [
        "Ġin",
        "ÃŃci"
      ],
      [
        "Ġin",
        "gl"
      ],
      [
        "Ġte",
        "la"
      ],
      [
        "Ġex",
        "ib"
      ],
      [
        "tu",
        "lo"
      ],
      [
        "Ġcon",
        "sta"
      ],
      [
        "Ġm",
        "Ã³d"
      ],
      [
        "Ġdo",
        "is"
      ],
      [
        "Ġse",
        "gu"
      ],
      [
        "iz",
        "a"
      ],
      [
        "Ġma",
        "ior"
      ],
      [
        "vi",
        "di"
      ],
      [
        "ÃŃ",
        "r"
      ],
      [
        "ÃŃ",
        "do"
      ],
      [
        "ÃŃ",
        "tulo"
      ],
      [
        "Ġpr",
        "on"
      ],
      [
        "Ġta",
        "rde"
      ],
      [
        "ve",
        "is"
      ],
      [
        "Ġcomp",
        "orta"
      ],
      [
        "Ġen",
        "quanto"
      ],
      [
        "Ġso",
        "bre"
      ],
      [
        "oo",
        "lean"
      ],
      [
        "Ġal",
        "gor"
      ],
      [
        "ĠI",
        "DE"
      ],
      [
        "Ġaju",
        "da"
      ],
      [
        "ĠB",
        "rasi"
      ],
      [
        "Ġexecu",
        "ta"
      ],
      [
        "Ġtra",
        "duz"
      ],
      [
        "Ġres",
        "ol"
      ],
      [
        "Ġterm",
        "o"
      ],
      [
        "Ġdifere",
        "ntes"
      ],
      [
        "Ġproje",
        "tos"
      ],
      [
        "Ġarqui",
        "vos"
      ],
      [
        "bo",
        "dy"
      ],
      [
        "Ġg",
        "os"
      ],
      [
        "Ġtem",
        "po"
      ],
      [
        "ĠL",
        "angua"
      ],
      [
        "Ġfo",
        "i"
      ],
      [
        "ĠÃº",
        "nica"
      ],
      [
        "ĠInte",
        "gra"
      ],
      [
        "Ġfacili",
        "tar"
      ],
      [
        "Ġper",
        "gun"
      ],
      [
        "Ġarmazen",
        "a"
      ],
      [
        "Ġcondi",
        "Ã§Ã£o"
      ],
      [
        "tribu",
        "ÃŃdo"
      ],
      [
        "ĠMar",
        "k"
      ],
      [
        "Ġgere",
        "nci"
      ],
      [
        "jun",
        "to"
      ],
      [
        "Ġintelig",
        "Ãªncia"
      ],
      [
        "Ġmod",
        "ifica"
      ],
      [
        "Ġequi",
        "pe"
      ],
      [
        "Ġespe",
        "cÃŃ"
      ],
      [
        "Ġexc",
        "elente"
      ],
      [
        "Ġcontro",
        "le"
      ],
      [
        "ĠinÃŃci",
        "o"
      ],
      [
        "Ġingl",
        "Ãªs"
      ],
      [
        "ĠmÃ³d",
        "ulo"
      ],
      [
        "Ġalgor",
        "it"
      ],
      [
        "ĠBrasi",
        "l"
      ],
      [
        "ĠLangua",
        "ge"
      ],
      [
        "\"",
        ">"
      ],
      [
        "\"",
        "?"
      ],
      [
        ")",
        "`"
      ],
      [
        "*",
        "/"
      ],
      [
        "/",
        "*"
      ],
      [
        "=",
        "\""
      ],
      [
        ">",
        "`."
      ],
      [
        "A",
        "R"
      ],
      [
        "L",
        "inguagem"
      ],
      [
        "P",
        "M"
      ],
      [
        "c",
        "tion"
      ],
      [
        "c",
        "om"
      ],
      [
        "d",
        "ing"
      ],
      [
        "e",
        "x"
      ],
      [
        "f",
        "lo"
      ],
      [
        "g",
        "le"
      ],
      [
        "i",
        "l"
      ],
      [
        "i",
        "x"
      ],
      [
        "i",
        "ti"
      ],
      [
        "i",
        "pu"
      ],
      [
        "l",
        "mente"
      ],
      [
        "m",
        "Ã¡"
      ],
      [
        "m",
        "it"
      ],
      [
        "m",
        "bÃ©"
      ],
      [
        "n",
        "to"
      ],
      [
        "n",
        "umero"
      ],
      [
        "o",
        "t"
      ],
      [
        "p",
        "re"
      ],
      [
        "p",
        "end"
      ],
      [
        "t",
        "ÃŃtulo"
      ],
      [
        "u",
        "z"
      ],
      [
        "u",
        "la"
      ],
      [
        "w",
        "or"
      ],
      [
        "y",
        "le"
      ],
      [
        "Ġ",
        "is"
      ],
      [
        "Ġ",
        "ini"
      ],
      [
        "Ġ",
        "im"
      ],
      [
        "ra",
        "r"
      ],
      [
        "ra",
        "nÃ§a"
      ],
      [
        "Ġc",
        "u"
      ],
      [
        "Ġd",
        "Ã¡"
      ],
      [
        "Ġd",
        "ar"
      ],
      [
        "Ġd",
        "ica"
      ],
      [
        "Ġd",
        "ado"
      ],
      [
        "Ġa",
        "man"
      ],
      [
        "Ġp",
        "elo"
      ],
      [
        "da",
        "mente"
      ],
      [
        "da",
        "des"
      ],
      [
        "ti",
        "va"
      ],
      [
        "ma",
        "gens"
      ],
      [
        "el",
        "lo"
      ],
      [
        "el",
        "iz"
      ],
      [
        "ta",
        "forma"
      ],
      [
        "ri",
        "co"
      ],
      [
        "Ġf",
        "on"
      ],
      [
        "Ġf",
        "al"
      ],
      [
        "Ġf",
        "ui"
      ],
      [
        "Ġf",
        "ei"
      ],
      [
        "Ġf",
        "rame"
      ],
      [
        "Ġf",
        "eliz"
      ],
      [
        "ĠC",
        "om"
      ],
      [
        "Ġs",
        "i"
      ],
      [
        "Ġs",
        "endo"
      ],
      [
        "po",
        "sta"
      ],
      [
        "ĠM",
        "undo"
      ],
      [
        "Ġ1",
        "0"
      ],
      [
        "Ġ1",
        "2"
      ],
      [
        "tra",
        "s"
      ],
      [
        "Ġforma",
        "to"
      ],
      [
        "Ġam",
        "biente"
      ],
      [
        "ĠR",
        "e"
      ],
      [
        "Ġamig",
        "Ã¡vel"
      ],
      [
        "ĠO",
        "b"
      ],
      [
        "ar",
        "es"
      ],
      [
        "Ġl",
        "uz"
      ],
      [
        "Ġ`",
        "\""
      ],
      [
        "ĠP",
        "ode"
      ],
      [
        "as",
        "h"
      ],
      [
        "lo",
        "s"
      ],
      [
        "lo",
        "gi"
      ],
      [
        "Ġb",
        "ug"
      ],
      [
        "Ġb",
        "ot"
      ],
      [
        "Ġre",
        "gra"
      ],
      [
        "Ġre",
        "co"
      ],
      [
        "Ġin",
        "t"
      ],
      [
        "Ġin",
        "de"
      ],
      [
        "Ġpro",
        "du"
      ],
      [
        "tu",
        "gu"
      ],
      [
        "Ġcon",
        "junto"
      ],
      [
        "tr",
        "l"
      ],
      [
        "Ġm",
        "Ã¡qu"
      ],
      [
        "Ġse",
        "g"
      ],
      [
        "ĠcÃ³dig",
        "os"
      ],
      [
        "Ġco",
        "la"
      ],
      [
        "ĠS",
        "im"
      ],
      [
        "Ġprograma",
        "dores"
      ],
      [
        "Ġta",
        "mbÃ©"
      ],
      [
        "ĠQu",
        "e"
      ],
      [
        "Ġdi",
        "vidi"
      ],
      [
        "Ġar",
        "tificial"
      ],
      [
        "Ġen",
        "vi"
      ],
      [
        "Ġdes",
        "ign"
      ],
      [
        "Ġso",
        "u"
      ],
      [
        "Ġso",
        "ma"
      ],
      [
        "Ġso",
        "lar"
      ],
      [
        "Ġinte",
        "iro"
      ],
      [
        "ĠN",
        "PM"
      ],
      [
        "oo",
        "gle"
      ],
      [
        "ĠI",
        "sso"
      ],
      [
        "()",
        "`"
      ],
      [
        "Ġ2",
        "00"
      ],
      [
        "he",
        "ci"
      ],
      [
        "Ġme",
        "s"
      ],
      [
        "Ġme",
        "u"
      ],
      [
        "Ġsistema",
        "s"
      ],
      [
        "tro",
        "s"
      ],
      [
        "con",
        "sole"
      ],
      [
        "no",
        "logi"
      ],
      [
        "Ġi",
        "magens"
      ],
      [
        "Ġopera",
        "cional"
      ],
      [
        "Ġperm",
        "iti"
      ],
      [
        "Ġvalor",
        "es"
      ],
      [
        "Ġutiliz",
        "a"
      ],
      [
        "Ġho",
        "ras"
      ],
      [
        "Ġsoftw",
        "ares"
      ],
      [
        "Ġele",
        "mentos"
      ],
      [
        "Ġto",
        "do"
      ],
      [
        "Ġcor",
        "es"
      ],
      [
        "Ġcor",
        "rig"
      ],
      [
        "ĠMe",
        "u"
      ],
      [
        "Ġbas",
        "ta"
      ],
      [
        "ĠEs",
        "tou"
      ],
      [
        "Ġerro",
        "s"
      ],
      [
        "Ġdu",
        "as"
      ],
      [
        "Ġten",
        "ha"
      ],
      [
        "Ġtaref",
        "a"
      ],
      [
        "Ġfo",
        "ra"
      ],
      [
        "Ġver",
        "dade"
      ],
      [
        "Ġver",
        "sÃ£o"
      ],
      [
        "Ġbiblioteca",
        "s"
      ],
      [
        "Ġdesenvolve",
        "dor"
      ],
      [
        "Ġstring",
        "s"
      ],
      [
        "Ġaplica",
        "tivo"
      ],
      [
        "fica",
        "r"
      ],
      [
        "Ġpla",
        "ne"
      ],
      [
        "Ġpla",
        "taforma"
      ],
      [
        "Ġsa",
        "be"
      ],
      [
        "ĠÃ³ti",
        "mo"
      ],
      [
        "Ġcha",
        "ma"
      ],
      [
        "Ġpri",
        "mo"
      ],
      [
        "Ġtec",
        "nologi"
      ],
      [
        "Ġdeclara",
        "r"
      ],
      [
        "Ġle",
        "ve"
      ],
      [
        "Ġremo",
        "to"
      ],
      [
        "Ġestil",
        "o"
      ],
      [
        "Ġman",
        "ipu"
      ],
      [
        "Ġcomple",
        "to"
      ],
      [
        "Ġlink",
        "s"
      ],
      [
        "Ġtrabal",
        "ho"
      ],
      [
        "Ġferramen",
        "tas"
      ],
      [
        "Ġ6",
        "4"
      ],
      [
        "Ġretor",
        "na"
      ],
      [
        "Ġins",
        "tru"
      ],
      [
        "Ġconcaten",
        "ar"
      ],
      [
        "Ġcompi",
        "lador"
      ],
      [
        "Ġservi",
        "dor"
      ],
      [
        "Ġorden",
        "ada"
      ],
      [
        "Ġnavega",
        "dor"
      ],
      [
        "fon",
        "te"
      ],
      [
        "ĠclÃ¡",
        "ss"
      ],
      [
        "Ġau",
        "to"
      ],
      [
        "ist",
        "Ã³"
      ],
      [
        "Ġrepres",
        "enta"
      ],
      [
        "Ġinfini",
        "to"
      ],
      [
        "Ġconsta",
        "nte"
      ],
      [
        "Ġgerenci",
        "ar"
      ],
      [
        "ĠespecÃŃ",
        "fica"
      ],
      [
        "pre",
        "tador"
      ],
      [
        "wor",
        "k"
      ],
      [
        "Ġaman",
        "hÃ£"
      ],
      [
        "Ġframe",
        "work"
      ],
      [
        "Ġregra",
        "s"
      ],
      [
        "Ġreco",
        "men"
      ],
      [
        "ĠtambÃ©",
        "m"
      ],
      [
        "Ġdividi",
        "do"
      ],
      [
        "\"",
        ";"
      ],
      [
        ")",
        ":"
      ],
      [
        ")",
        ";"
      ],
      [
        ")",
        "?"
      ],
      [
        ".",
        "."
      ],
      [
        "1",
        "4"
      ],
      [
        ";",
        "`"
      ],
      [
        "=",
        "="
      ],
      [
        "C",
        "trl"
      ],
      [
        "E",
        "A"
      ],
      [
        "I",
        "nte"
      ],
      [
        "`",
        ")."
      ],
      [
        "d",
        "izado"
      ],
      [
        "e",
        "ts"
      ],
      [
        "f",
        "un"
      ],
      [
        "h",
        "or"
      ],
      [
        "i",
        "tar"
      ],
      [
        "l",
        "d"
      ],
      [
        "l",
        "ti"
      ],
      [
        "m",
        "os"
      ],
      [
        "n",
        "s"
      ],
      [
        "o",
        "p"
      ],
      [
        "o",
        "ma"
      ],
      [
        "p",
        "x"
      ],
      [
        "p",
        "lame"
      ],
      [
        "r",
        "s"
      ],
      [
        "r",
        "om"
      ],
      [
        "s",
        "t"
      ],
      [
        "s",
        "te"
      ],
      [
        "s",
        "tring"
      ],
      [
        "t",
        "le"
      ],
      [
        "t",
        "yle"
      ],
      [
        "u",
        "dar"
      ],
      [
        "w",
        "w"
      ],
      [
        "y",
        "ou"
      ],
      [
        "Ġ",
        "}"
      ],
      [
        "Ġ",
        "oc"
      ],
      [
        "Ġ",
        "impor"
      ],
      [
        "Ġe",
        "fici"
      ],
      [
        "Ġc",
        "ada"
      ],
      [
        "te",
        "d"
      ],
      [
        "Ġd",
        "ig"
      ],
      [
        "Ġd",
        "Ãº"
      ],
      [
        "la",
        "ss"
      ],
      [
        "Ġa",
        "tra"
      ],
      [
        "Ġa",
        "zul"
      ],
      [
        "or",
        "ld"
      ],
      [
        "ti",
        "da"
      ],
      [
        "ti",
        "mentos"
      ],
      [
        "ti",
        "tle"
      ],
      [
        "el",
        "e"
      ],
      [
        "el",
        "hor"
      ],
      [
        "ta",
        "tion"
      ],
      [
        "in",
        "dow"
      ],
      [
        "Ġf",
        "oc"
      ],
      [
        "Ġf",
        "im"
      ],
      [
        "es",
        "pera"
      ],
      [
        "ĠC",
        "asca"
      ],
      [
        "ig",
        "o"
      ],
      [
        "Ġo",
        "ficial"
      ],
      [
        "qu",
        "em"
      ],
      [
        "Ġs",
        "en"
      ],
      [
        "av",
        "es"
      ],
      [
        "ĠV",
        "S"
      ],
      [
        "po",
        "si"
      ],
      [
        "ĠU",
        "s"
      ],
      [
        "ĠÃ",
        "Ń"
      ],
      [
        "Ġcria",
        "ndo"
      ],
      [
        "Ġfor",
        "ne"
      ],
      [
        "ĠF",
        "ull"
      ],
      [
        "Ġam",
        "plame"
      ],
      [
        "re",
        "a"
      ],
      [
        "re",
        "m"
      ],
      [
        "om",
        "p"
      ],
      [
        "Ġn",
        "ada"
      ],
      [
        "Ã§",
        "os"
      ],
      [
        "al",
        "e"
      ],
      [
        "Ã¡",
        "veis"
      ],
      [
        "Ġpa",
        "ss"
      ],
      [
        "Ġpa",
        "sta"
      ],
      [
        "ca",
        "Ã§Ã£o"
      ],
      [
        "Ġem",
        "bu"
      ],
      [
        "ar",
        "til"
      ],
      [
        "Ġl",
        "i"
      ],
      [
        "Ġl",
        "er"
      ],
      [
        "Ġl",
        "ei"
      ],
      [
        "Ġ`",
        "/*"
      ],
      [
        "Ãª",
        "nci"
      ],
      [
        "Ġcom",
        "um"
      ],
      [
        "Ġcom",
        "igo"
      ],
      [
        "Ġno",
        "s"
      ],
      [
        "Ġno",
        "vo"
      ],
      [
        "Ġb",
        "em"
      ],
      [
        "Ġb",
        "ran"
      ],
      [
        "Ġb",
        "oolean"
      ],
      [
        "le",
        "Ã§Ã£o"
      ],
      [
        "Ġes",
        "te"
      ],
      [
        "Ġes",
        "cri"
      ],
      [
        "Ġes",
        "cre"
      ],
      [
        "ĠE",
        "n"
      ],
      [
        "ĠE",
        "sse"
      ],
      [
        "Ġin",
        "forma"
      ],
      [
        "Ġin",
        "espera"
      ],
      [
        "Ġex",
        "a"
      ],
      [
        "Ġou",
        "tras"
      ],
      [
        "Ġcon",
        "ta"
      ],
      [
        "Ġcon",
        "heci"
      ],
      [
        "Ġm",
        "inu"
      ],
      [
        "Ġm",
        "elhor"
      ],
      [
        "Ġse",
        "ja"
      ],
      [
        "iz",
        "ada"
      ],
      [
        "Ġma",
        "r"
      ],
      [
        "Ġma",
        "s"
      ],
      [
        "Ġma",
        "nte"
      ],
      [
        "ol",
        "has"
      ],
      [
        "co",
        "tes"
      ],
      [
        "Ġco",
        "leÃ§Ã£o"
      ],
      [
        "vi",
        "dade"
      ],
      [
        "ĠS",
        "he"
      ],
      [
        "ĠS",
        "tyle"
      ],
      [
        "Ġprograma",
        "r"
      ],
      [
        "Ġta",
        "man"
      ],
      [
        "Ġta",
        "be"
      ],
      [
        "ĠQu",
        "em"
      ],
      [
        "Ġcomp",
        "artil"
      ],
      [
        "cu",
        "lo"
      ],
      [
        "Ġpor",
        "tugu"
      ],
      [
        "cion",
        "ais"
      ],
      [
        "ĠN",
        "a"
      ],
      [
        "Ġal",
        "go"
      ],
      [
        "Ġseu",
        "s"
      ],
      [
        "Ġ2",
        "5"
      ],
      [
        "Ġestrutura",
        "r"
      ],
      [
        "ncia",
        "dor"
      ],
      [
        "ce",
        "iro"
      ],
      [
        "ĠT",
        "udo"
      ],
      [
        "con",
        "te"
      ],
      [
        "con",
        "st"
      ],
      [
        "gu",
        "ar"
      ],
      [
        "pi",
        "tal"
      ],
      [
        "ne",
        "t"
      ],
      [
        "Ġh",
        "u"
      ],
      [
        "Ġh",
        "istÃ³"
      ],
      [
        "Ġi",
        "dade"
      ],
      [
        "Ġres",
        "to"
      ],
      [
        "plica",
        "Ã§Ã£o"
      ],
      [
        "ĠcomentÃ¡",
        "rios"
      ],
      [
        "Ġutiliz",
        "ada"
      ],
      [
        "us",
        "h"
      ],
      [
        "Ġ3",
        "0"
      ],
      [
        "Ġban",
        "cos"
      ],
      [
        "Ġra",
        "iz"
      ],
      [
        "Ġmen",
        "sa"
      ],
      [
        "Ġbloc",
        "os"
      ],
      [
        "Ġdesenvolvi",
        "da"
      ],
      [
        "Ġvari",
        "Ã¡veis"
      ],
      [
        "ch",
        "ave"
      ],
      [
        "Ġdu",
        "plas"
      ],
      [
        "Ġten",
        "ho"
      ],
      [
        "Ġmo",
        "der"
      ],
      [
        "Ġobje",
        "tos"
      ],
      [
        "Ġconver",
        "sar"
      ],
      [
        "ĠprÃ³",
        "p"
      ],
      [
        "Ġinter",
        "net"
      ],
      [
        "Ġdesenvolve",
        "dores"
      ],
      [
        "Ġdis",
        "posi"
      ],
      [
        "Ġfacili",
        "tando"
      ],
      [
        "Ġca",
        "pa"
      ],
      [
        "Ġca",
        "pital"
      ],
      [
        "Ġaplica",
        "Ã§Ã£o"
      ],
      [
        "Ġarmazen",
        "ar"
      ],
      [
        "ĠÃ³ti",
        "ma"
      ],
      [
        "Ġcha",
        "mar"
      ],
      [
        "Ġab",
        "erto"
      ],
      [
        "ĠW",
        "orld"
      ],
      [
        "ĠW",
        "indow"
      ],
      [
        "Ġch",
        "ave"
      ],
      [
        "Ġch",
        "aves"
      ],
      [
        "inu",
        "x"
      ],
      [
        "ĠDe",
        "vel"
      ],
      [
        "Ġreal",
        "izar"
      ],
      [
        "Ġespa",
        "Ã§os"
      ],
      [
        "Ġdocu",
        "mento"
      ],
      [
        "ype",
        "Script"
      ],
      [
        "Ġla",
        "you"
      ],
      [
        "Ġro",
        "dar"
      ],
      [
        "ĠÃ¡",
        "rea"
      ],
      [
        "Ġpalav",
        "ra"
      ],
      [
        "Ġter",
        "ceiro"
      ],
      [
        "Ġcaracte",
        "res"
      ],
      [
        "Ġquadra",
        "da"
      ],
      [
        "Ġproprie",
        "dade"
      ],
      [
        "sel",
        "f"
      ],
      [
        "Ġite",
        "m"
      ],
      [
        "Ġcal",
        "cu"
      ],
      [
        "Ġprec",
        "isar"
      ],
      [
        "Ġdef",
        "ine"
      ],
      [
        "Ġestu",
        "dos"
      ],
      [
        "Ġsegu",
        "ra"
      ],
      [
        "Ġpron",
        "ta"
      ],
      [
        "Ġresol",
        "ver"
      ],
      [
        "Ġalgorit",
        "mo"
      ],
      [
        "ix",
        "ar"
      ],
      [
        "Ġini",
        "ci"
      ],
      [
        "Ġseg",
        "ui"
      ],
      [
        "Ġpermiti",
        "ndo"
      ],
      [
        "Ġcorrig",
        "ir"
      ],
      [
        "Ġtecnologi",
        "a"
      ],
      [
        "Ġinstru",
        "Ã§Ãµes"
      ],
      [
        "Ġrecomen",
        "da"
      ],
      [
        "Inte",
        "rface"
      ],
      [
        "fun",
        "ction"
      ],
      [
        "Ġoc",
        "orre"
      ],
      [
        "Ġefici",
        "ente"
      ],
      [
        "ĠdÃº",
        "vi"
      ],
      [
        "Ġsen",
        "timentos"
      ],
      [
        "Ġamplame",
        "nte"
      ],
      [
        "Ġembu",
        "tida"
      ],
      [
        "Ãªnci",
        "as"
      ],
      [
        "Ġminu",
        "tos"
      ],
      [
        "ĠShe",
        "ets"
      ],
      [
        "ĠWindow",
        "s"
      ],
      [
        "Ġlayou",
        "ts"
      ],
      [
        "!",
        "</"
      ],
      [
        "\"",
        "\""
      ],
      [
        "\"",
        "`."
      ],
      [
        "'",
        "?"
      ],
      [
        "1",
        "2"
      ],
      [
        "1",
        "5"
      ],
      [
        ":",
        "//"
      ],
      [
        "A",
        "m"
      ],
      [
        "D",
        "elta"
      ],
      [
        "E",
        "r"
      ],
      [
        "O",
        "S"
      ],
      [
        "S",
        "QL"
      ],
      [
        "T",
        "P"
      ],
      [
        "T",
        "ex"
      ],
      [
        "`",
        ","
      ],
      [
        "a",
        "zul"
      ],
      [
        "b",
        "ui"
      ],
      [
        "c",
        "tu"
      ],
      [
        "c",
        "nica"
      ],
      [
        "c",
        "orre"
      ],
      [
        "c",
        "lass"
      ],
      [
        "c",
        "OS"
      ],
      [
        "d",
        "it"
      ],
      [
        "e",
        "jo"
      ],
      [
        "f",
        "is"
      ],
      [
        "f",
        "al"
      ],
      [
        "g",
        "ir"
      ],
      [
        "h",
        "ado"
      ],
      [
        "i",
        "c"
      ],
      [
        "i",
        "ta"
      ],
      [
        "i",
        "to"
      ],
      [
        "i",
        "per"
      ],
      [
        "l",
        "ista"
      ],
      [
        "l",
        "hos"
      ],
      [
        "n",
        "ar"
      ],
      [
        "n",
        "de"
      ],
      [
        "n",
        "di"
      ],
      [
        "n",
        "ge"
      ],
      [
        "p",
        "s"
      ],
      [
        "p",
        "ar"
      ],
      [
        "p",
        "en"
      ],
      [
        "p",
        "ara"
      ],
      [
        "r",
        "or"
      ],
      [
        "s",
        "or"
      ],
      [
        "t",
        "ps"
      ],
      [
        "u",
        "p"
      ],
      [
        "u",
        "til"
      ],
      [
        "u",
        "vem"
      ],
      [
        "v",
        "ado"
      ],
      [
        "v",
        "Ã©"
      ],
      [
        "v",
        "alor"
      ],
      [
        "y",
        "per"
      ],
      [
        "Ã",
        "¢"
      ],
      [
        "Ġ",
        "%"
      ],
      [
        "Ġ",
        "tro"
      ],
      [
        "Ġ",
        "*/"
      ],
      [
        "Ġ",
        "tÃŃtulo"
      ],
      [
        "Ġ",
        "guar"
      ],
      [
        "ra",
        "nte"
      ],
      [
        "ra",
        "Ã§Ã£o"
      ],
      [
        "ra",
        "ndo"
      ],
      [
        "Ġe",
        "la"
      ],
      [
        "Ġe",
        "ss"
      ],
      [
        "Ġe",
        "dit"
      ],
      [
        "Ġc",
        "er"
      ],
      [
        "Ġc",
        "as"
      ],
      [
        "Ġc",
        "an"
      ],
      [
        "Ġc",
        "ÃŃr"
      ],
      [
        "Ġd",
        "as"
      ],
      [
        "Ġd",
        "iz"
      ],
      [
        "Ġa",
        "ntes"
      ],
      [
        "Ġa",
        "tal"
      ],
      [
        "Ġa",
        "tribu"
      ],
      [
        "Ġa",
        "conte"
      ],
      [
        "on",
        "e"
      ],
      [
        "on",
        "go"
      ],
      [
        "Ġp",
        "ra"
      ],
      [
        "Ġp",
        "ref"
      ],
      [
        "Ġp",
        "ull"
      ],
      [
        "Ġp",
        "ush"
      ],
      [
        "Ġde",
        "ci"
      ],
      [
        "Ġde",
        "fini"
      ],
      [
        "Ġde",
        "vem"
      ],
      [
        "Ġde",
        "pend"
      ],
      [
        "ti",
        "r"
      ],
      [
        "ma",
        "is"
      ],
      [
        "ma",
        "mente"
      ],
      [
        "el",
        "se"
      ],
      [
        "ta",
        "g"
      ],
      [
        "ta",
        "da"
      ],
      [
        "in",
        "el"
      ],
      [
        "in",
        "ter"
      ],
      [
        "ri",
        "or"
      ],
      [
        "ri",
        "ficar"
      ],
      [
        "Ġf",
        "e"
      ],
      [
        "Ġf",
        "Ã¡"
      ],
      [
        "Ġf",
        "Ã³"
      ],
      [
        "Ġf",
        "ica"
      ],
      [
        "Ġf",
        "rontend"
      ],
      [
        "Ġf",
        "lu"
      ],
      [
        "es",
        "s"
      ],
      [
        "es",
        "ts"
      ],
      [
        "es",
        "sion"
      ],
      [
        "is",
        "a"
      ],
      [
        "is",
        "Ã£o"
      ],
      [
        "ĠC",
        "ons"
      ],
      [
        "ig",
        "la"
      ],
      [
        "qu",
        "ests"
      ],
      [
        "Ġs",
        "ta"
      ],
      [
        "Ġs",
        "al"
      ],
      [
        "Ġs",
        "tr"
      ],
      [
        "Ġs",
        "cript"
      ],
      [
        "Ġs",
        "igla"
      ],
      [
        "ĠM",
        "a"
      ],
      [
        "Ġ1",
        "00"
      ],
      [
        "ĠF",
        "rontend"
      ],
      [
        "re",
        "i"
      ],
      [
        "re",
        "en"
      ],
      [
        "Ġqu",
        "anto"
      ],
      [
        "Ġque",
        "b"
      ],
      [
        "Ġque",
        "r"
      ],
      [
        "Ġn",
        "e"
      ],
      [
        "Ġn",
        "um"
      ],
      [
        "Ġn",
        "uvem"
      ],
      [
        "al",
        "hos"
      ],
      [
        "Ã¡",
        "rios"
      ],
      [
        "Ġpa",
        "res"
      ],
      [
        "Ġpa",
        "cotes"
      ],
      [
        "Ġpa",
        "inel"
      ],
      [
        "ĠO",
        "ver"
      ],
      [
        "er",
        "y"
      ],
      [
        "Ġv",
        "ol"
      ],
      [
        "Ġv",
        "ÃŃr"
      ],
      [
        "de",
        "bug"
      ],
      [
        "ci",
        "l"
      ],
      [
        "ci",
        "dade"
      ],
      [
        "Ġl",
        "im"
      ],
      [
        "Ġ`",
        "#"
      ],
      [
        "Ġ`",
        "+"
      ],
      [
        "Ġcom",
        "b"
      ],
      [
        "Ġcom",
        "un"
      ],
      [
        "Ġcom",
        "mit"
      ],
      [
        "ĠP",
        "a"
      ],
      [
        "en",
        "tra"
      ],
      [
        "en",
        "ha"
      ],
      [
        "Ġno",
        "sso"
      ],
      [
        "Ġb",
        "or"
      ],
      [
        "le",
        "x"
      ],
      [
        "Ġre",
        "Ãº"
      ],
      [
        "Ġre",
        "util"
      ],
      [
        "an",
        "a"
      ],
      [
        "ĠĠ",
        "ĠĠ"
      ],
      [
        "Ġes",
        "ta"
      ],
      [
        "Ġes",
        "co"
      ],
      [
        "os",
        "pe"
      ],
      [
        "Ġpro",
        "fis"
      ],
      [
        "Ġex",
        "iste"
      ],
      [
        "Ġex",
        "tre"
      ],
      [
        "Ġus",
        "o"
      ],
      [
        "un",
        "ca"
      ],
      [
        "dor",
        "o"
      ],
      [
        "gra",
        "m"
      ],
      [
        "tu",
        "s"
      ],
      [
        "Ġcon",
        "tador"
      ],
      [
        "Ġcon",
        "se"
      ],
      [
        "Ġcon",
        "sole"
      ],
      [
        "Ġm",
        "ul"
      ],
      [
        "Ġpo",
        "is"
      ],
      [
        "Ġpo",
        "pu"
      ],
      [
        "Ġpo",
        "der"
      ],
      [
        "Ġse",
        "para"
      ],
      [
        "pe",
        "ri"
      ],
      [
        "Ġma",
        "ne"
      ],
      [
        "Ġma",
        "cOS"
      ],
      [
        "ĠA",
        "r"
      ],
      [
        "co",
        "b"
      ],
      [
        "grama",
        "Ã§Ã£o"
      ],
      [
        "vi",
        "mento"
      ],
      [
        "vi",
        "ron"
      ],
      [
        "ÃŃ",
        "s"
      ],
      [
        "Ġpr",
        "Ã©"
      ],
      [
        "Ġpr",
        "ession"
      ],
      [
        "ĠS",
        "tru"
      ],
      [
        "Ġta",
        "nto"
      ],
      [
        "ĠQu",
        "an"
      ],
      [
        "ĠQu",
        "ery"
      ],
      [
        "Ġdi",
        "v"
      ],
      [
        "Ġdi",
        "as"
      ],
      [
        "Ġfa",
        "Ã§o"
      ],
      [
        "ifica",
        "Ã§Ã£o"
      ],
      [
        "Ġpode",
        "m"
      ],
      [
        "Ãº",
        "do"
      ],
      [
        "Ġcomp",
        "reen"
      ],
      [
        "je",
        "ct"
      ],
      [
        "ada",
        "s"
      ],
      [
        "Ġdes",
        "can"
      ],
      [
        "Ġdes",
        "cob"
      ],
      [
        "pl",
        "i"
      ],
      [
        "di",
        "a"
      ],
      [
        "di",
        "oma"
      ],
      [
        "Ġso",
        "mar"
      ],
      [
        "ĠHT",
        "TP"
      ],
      [
        "ĠG",
        "oogle"
      ],
      [
        "Ġda",
        "te"
      ],
      [
        "ul",
        "tado"
      ],
      [
        "ĠExemplo",
        "s"
      ],
      [
        "ĠI",
        "A"
      ],
      [
        "envol",
        "vimento"
      ],
      [
        "trutura",
        "da"
      ],
      [
        "ĠB",
        "ackend"
      ],
      [
        "pera",
        "r"
      ],
      [
        "Ġexecu",
        "tÃ¡"
      ],
      [
        "si",
        "co"
      ],
      [
        "ĠT",
        "ypeScript"
      ],
      [
        "ĠT",
        "enha"
      ],
      [
        "Ġpar",
        "tir"
      ],
      [
        "Ã§a",
        "mentos"
      ],
      [
        "ĠNo",
        "tation"
      ],
      [
        "ĠNo",
        "SQL"
      ],
      [
        "gu",
        "e"
      ],
      [
        "Ġcomen",
        "tar"
      ],
      [
        "tÃ©",
        "cnica"
      ],
      [
        "Ġva",
        "z"
      ],
      [
        "Ġh",
        "ash"
      ],
      [
        "Ġh",
        "ospe"
      ],
      [
        "Ġi",
        "dioma"
      ],
      [
        "Ġor",
        "i"
      ],
      [
        "Ġres",
        "ulta"
      ],
      [
        "Ġres",
        "ultado"
      ],
      [
        "Ġcomando",
        "s"
      ],
      [
        "Ġve",
        "rificar"
      ],
      [
        "por",
        "te"
      ],
      [
        "tri",
        "bui"
      ],
      [
        "Ġutiliz",
        "e"
      ],
      [
        "Ġutiliz",
        "ando"
      ],
      [
        "Ġho",
        "ra"
      ],
      [
        "Ġaltera",
        "r"
      ],
      [
        "Ġaltera",
        "do"
      ],
      [
        "Ġra",
        "nge"
      ],
      [
        "Ġto",
        "dos"
      ],
      [
        "Ġcor",
        "re"
      ],
      [
        "ĠEs",
        "truturada"
      ],
      [
        "Ġcomputador",
        "es"
      ],
      [
        "Ġ<",
        "<"
      ],
      [
        "Ġdu",
        "rante"
      ],
      [
        "den",
        "taÃ§Ã£o"
      ],
      [
        "go",
        "ra"
      ],
      [
        "ĠL",
        "inux"
      ],
      [
        "ter",
        "na"
      ],
      [
        "man",
        "os"
      ],
      [
        "ĠÃº",
        "til"
      ],
      [
        "Ġconver",
        "s"
      ],
      [
        "Ġconver",
        "ter"
      ],
      [
        "Ġinter",
        "pretador"
      ],
      [
        "Ġdesenvolve",
        "u"
      ],
      [
        "ht",
        "tps"
      ],
      [
        "Ġr",
        "espon"
      ],
      [
        "Ġon",
        "l"
      ],
      [
        "Ġdis",
        "tribuÃŃdo"
      ],
      [
        "ĠÃł",
        "s"
      ],
      [
        "ĠInte",
        "rface"
      ],
      [
        "Ġac",
        "essar"
      ],
      [
        "Ġac",
        "omp"
      ],
      [
        "ĠlÃ³",
        "gi"
      ],
      [
        "Ġtr",
        "Ã¡"
      ],
      [
        "Ġtr",
        "Ãªs"
      ],
      [
        "Ġtr",
        "ocar"
      ],
      [
        "Ġsa",
        "udar"
      ],
      [
        "ĠbÃ¡",
        "sico"
      ],
      [
        "Ġconte",
        "Ãºdo"
      ],
      [
        "Ġcondi",
        "cional"
      ],
      [
        "Ġintera",
        "ge"
      ],
      [
        "Ġintera",
        "gir"
      ],
      [
        "pura",
        "Ã§Ã£o"
      ],
      [
        "Ġpadr",
        "Ãµes"
      ],
      [
        "Ġgera",
        "ndo"
      ],
      [
        "Ġgera",
        "lmente"
      ],
      [
        "Ġgere",
        "nciador"
      ],
      [
        "Ġdeclara",
        "da"
      ],
      [
        "Ġan",
        "al"
      ],
      [
        "Ġ15",
        "0"
      ],
      [
        "Ġrela",
        "cional"
      ],
      [
        "Ġrela",
        "cionais"
      ],
      [
        "Ġespa",
        "Ã§amentos"
      ],
      [
        "Ġproc",
        "esso"
      ],
      [
        "Ġproc",
        "essar"
      ],
      [
        "Ġorgan",
        "izar"
      ],
      [
        "Ġbase",
        "ada"
      ],
      [
        "Ġferramen",
        "ta"
      ],
      [
        "Ġproblema",
        "s"
      ],
      [
        "Ġpesso",
        "a"
      ],
      [
        "Ġpesso",
        "as"
      ],
      [
        "Ġdepura",
        "Ã§Ã£o"
      ],
      [
        "dow",
        "n"
      ],
      [
        "ĠDes",
        "ejo"
      ],
      [
        "ĠDes",
        "envolvimento"
      ],
      [
        "Ġpalav",
        "ras"
      ],
      [
        "Ġrecu",
        "rs"
      ],
      [
        "Ġrecu",
        "perar"
      ],
      [
        "Ġinsta",
        "lar"
      ],
      [
        "Ġposs",
        "ui"
      ],
      [
        "Ġapren",
        "der"
      ],
      [
        "Ġapren",
        "dizado"
      ],
      [
        "ĠrÃ¡pi",
        "da"
      ],
      [
        "ĠrÃ¡pi",
        "do"
      ],
      [
        "Ġcaracte",
        "re"
      ],
      [
        "Ġproprie",
        "dades"
      ],
      [
        "Ġgra",
        "tu"
      ],
      [
        "Ġadicion",
        "ar"
      ],
      [
        "red",
        "on"
      ],
      [
        "ĠPro",
        "gram"
      ],
      [
        "ĠPro",
        "gramaÃ§Ã£o"
      ],
      [
        "Ġexib",
        "ir"
      ],
      [
        "iza",
        "Ã§Ã£o"
      ],
      [
        "Ġcomporta",
        "mento"
      ],
      [
        "Ġcomporta",
        "mentos"
      ],
      [
        "Ġgos",
        "ta"
      ],
      [
        "ĠIntegra",
        "do"
      ],
      [
        "ĠIntegra",
        "ted"
      ],
      [
        "Ġpergun",
        "tas"
      ],
      [
        "ĠMark",
        "up"
      ],
      [
        "ĠMark",
        "down"
      ],
      [
        "flo",
        "w"
      ],
      [
        "Ġis",
        "so"
      ],
      [
        "Ġcu",
        "jo"
      ],
      [
        "Ġfon",
        "tes"
      ],
      [
        "Ġfal",
        "ha"
      ],
      [
        "ĠOb",
        "ject"
      ],
      [
        "Ġbot",
        "Ãµes"
      ],
      [
        "Ġinde",
        "x"
      ],
      [
        "ĠmÃ¡qu",
        "ina"
      ],
      [
        "Ġcola",
        "bo"
      ],
      [
        "Ġenvi",
        "ar"
      ],
      [
        "Ġmes",
        "mo"
      ],
      [
        "Ġverdade",
        "ira"
      ],
      [
        "Ġmanipu",
        "la"
      ],
      [
        "ĠclÃ¡ss",
        "ico"
      ],
      [
        "Ġauto",
        "ma"
      ],
      [
        "op",
        "ment"
      ],
      [
        "Ġatra",
        "vÃ©"
      ],
      [
        "ĠÃŃ",
        "ndi"
      ],
      [
        "Ġpass",
        "os"
      ],
      [
        "Ġlei",
        "tura"
      ],
      [
        "Ġboolean",
        "o"
      ],
      [
        "Ġescre",
        "ver"
      ],
      [
        "ĠEn",
        "viron"
      ],
      [
        "Ġinforma",
        "Ã§Ãµes"
      ],
      [
        "Ġinespera",
        "do"
      ],
      [
        "Ġtaman",
        "ho"
      ],
      [
        "Ġtabe",
        "las"
      ],
      [
        "Ġportugu",
        "Ãªs"
      ],
      [
        "Ġhu",
        "manos"
      ],
      [
        "ĠhistÃ³",
        "rico"
      ],
      [
        "Ġmensa",
        "gem"
      ],
      [
        "ĠprÃ³p",
        "rio"
      ],
      [
        "Ġcapa",
        "z"
      ],
      [
        "ĠDevel",
        "opment"
      ],
      [
        "Ġterceiro",
        "s"
      ],
      [
        "Ġcalcu",
        "lar"
      ],
      [
        "Am",
        "biente"
      ],
      [
        "Er",
        "ror"
      ],
      [
        "Tex",
        "t"
      ],
      [
        "ctu",
        "red"
      ],
      [
        "iper",
        "texto"
      ],
      [
        "yper",
        "Text"
      ],
      [
        "Ġtro",
        "quem"
      ],
      [
        "Ġedit",
        "or"
      ],
      [
        "ĠcÃŃr",
        "culo"
      ],
      [
        "Ġatal",
        "ho"
      ],
      [
        "Ġdepend",
        "Ãªncias"
      ],
      [
        "ĠfÃ¡",
        "cil"
      ],
      [
        "ĠCons",
        "ulta"
      ],
      [
        "Ġnum",
        "Ã©"
      ],
      [
        "ĠOver",
        "flow"
      ],
      [
        "ĠreÃº",
        "ne"
      ],
      [
        "ĠĠĠĠ",
        "ĠĠĠ"
      ],
      [
        "Ġesco",
        "po"
      ],
      [
        "Ġprofis",
        "sion"
      ],
      [
        "Ġextre",
        "mamente"
      ],
      [
        "Ġconse",
        "gue"
      ],
      [
        "Ġmane",
        "ira"
      ],
      [
        "ĠStru",
        "ctured"
      ],
      [
        "Ġhash",
        "tag"
      ],
      [
        "Ġhospe",
        "da"
      ],
      [
        "Ġacomp",
        "an"
      ],
      [
        "Ġrecurs",
        "os"
      ],
      [
        "ĠatravÃ©",
        "s"
      ],
      [
        "ĠEnviron",
        "ment"
      ],
      [
        "!",
        "\";"
      ],
      [
        "\"",
        "."
      ],
      [
        "\"",
        "]"
      ],
      [
        "\"",
        "`"
      ],
      [
        "%",
        "`"
      ],
      [
        "'",
        "'"
      ],
      [
        "+",
        "+"
      ],
      [
        ".",
        "</"
      ],
      [
        "1",
        "0"
      ],
      [
        "1",
        "00"
      ],
      [
        "4",
        "4"
      ],
      [
        "6",
        "7"
      ],
      [
        "<",
        "!"
      ],
      [
        "=",
        "`"
      ],
      [
        "A",
        "B"
      ],
      [
        "C",
        "H"
      ],
      [
        "C",
        "R"
      ],
      [
        "C",
        "T"
      ],
      [
        "C",
        "SS"
      ],
      [
        "C",
        "har"
      ],
      [
        "C",
        "asca"
      ],
      [
        "D",
        "B"
      ],
      [
        "D",
        "M"
      ],
      [
        "D",
        "O"
      ],
      [
        "E",
        "f"
      ],
      [
        "E",
        "x"
      ],
      [
        "E",
        "ste"
      ],
      [
        "H",
        "T"
      ],
      [
        "H",
        "ello"
      ],
      [
        "J",
        "o"
      ],
      [
        "L",
        "E"
      ],
      [
        "M",
        "undo"
      ],
      [
        "M",
        "inha"
      ],
      [
        "N",
        "D"
      ],
      [
        "N",
        "Ã"
      ],
      [
        "N",
        "ull"
      ],
      [
        "O",
        "M"
      ],
      [
        "O",
        "T"
      ],
      [
        "O",
        "U"
      ],
      [
        "P",
        "E"
      ],
      [
        "R",
        "Y"
      ],
      [
        "T",
        "E"
      ],
      [
        "Y",
        "PE"
      ],
      [
        "_",
        "_"
      ],
      [
        "`",
        "<"
      ],
      [
        "a",
        "p"
      ],
      [
        "a",
        "nte"
      ],
      [
        "a",
        "Ã§Ã£o"
      ],
      [
        "a",
        "ge"
      ],
      [
        "a",
        "ntes"
      ],
      [
        "a",
        "ct"
      ],
      [
        "a",
        "tribuÃŃdo"
      ],
      [
        "a",
        "ixar"
      ],
      [
        "b",
        "er"
      ],
      [
        "b",
        "ackend"
      ],
      [
        "c",
        "l"
      ],
      [
        "c",
        "ss"
      ],
      [
        "c",
        "er"
      ],
      [
        "c",
        "em"
      ],
      [
        "c",
        "he"
      ],
      [
        "c",
        "lar"
      ],
      [
        "c",
        "lasse"
      ],
      [
        "d",
        "int"
      ],
      [
        "e",
        "c"
      ],
      [
        "e",
        "ar"
      ],
      [
        "e",
        "rir"
      ],
      [
        "f",
        "ere"
      ],
      [
        "f",
        "ei"
      ],
      [
        "g",
        "is"
      ],
      [
        "g",
        "er"
      ],
      [
        "g",
        "ar"
      ],
      [
        "g",
        "Ã³"
      ],
      [
        "g",
        "as"
      ],
      [
        "g",
        "th"
      ],
      [
        "g",
        "ing"
      ],
      [
        "g",
        "ÃŃvel"
      ],
      [
        "g",
        "oogle"
      ],
      [
        "h",
        "ados"
      ],
      [
        "h",
        "ref"
      ],
      [
        "i",
        "a"
      ],
      [
        "i",
        "do"
      ],
      [
        "i",
        "th"
      ],
      [
        "i",
        "Ãªncia"
      ],
      [
        "k",
        "er"
      ],
      [
        "l",
        "en"
      ],
      [
        "l",
        "ha"
      ],
      [
        "l",
        "im"
      ],
      [
        "l",
        "izar"
      ],
      [
        "l",
        "one"
      ],
      [
        "m",
        "d"
      ],
      [
        "m",
        "po"
      ],
      [
        "m",
        "ing"
      ],
      [
        "m",
        "bo"
      ],
      [
        "m",
        "ificaÃ§Ã£o"
      ],
      [
        "n",
        "os"
      ],
      [
        "n",
        "ing"
      ],
      [
        "n",
        "ull"
      ],
      [
        "o",
        "ol"
      ],
      [
        "p",
        "y"
      ],
      [
        "p",
        "ite"
      ],
      [
        "p",
        "plica"
      ],
      [
        "s",
        "iz"
      ],
      [
        "s",
        "Ãµes"
      ],
      [
        "s",
        "tri"
      ],
      [
        "t",
        "t"
      ],
      [
        "t",
        "Ã£o"
      ],
      [
        "t",
        "Ã³rio"
      ],
      [
        "t",
        "ml"
      ],
      [
        "t",
        "ype"
      ],
      [
        "u",
        "lar"
      ],
      [
        "u",
        "Ã¡rios"
      ],
      [
        "v",
        "as"
      ],
      [
        "v",
        "endo"
      ],
      [
        "w",
        "ith"
      ],
      [
        "y",
        "Char"
      ],
      [
        "z",
        "a"
      ],
      [
        "z",
        "er"
      ],
      [
        "{",
        "}"
      ],
      [
        "Ã",
        "´"
      ],
      [
        "Ã",
        "ī"
      ],
      [
        "Ï",
        "Ģ"
      ],
      [
        "Ġ",
        "*"
      ],
      [
        "Ġ",
        "-"
      ],
      [
        "Ġ",
        "K"
      ],
      [
        "Ġ",
        "x"
      ],
      [
        "Ġ",
        "tu"
      ],
      [
        "Ġ",
        "he"
      ],
      [
        "Ġ",
        "tre"
      ],
      [
        "Ġ",
        "import"
      ],
      [
        "Ġ",
        "//"
      ],
      [
        "Ġ",
        "jun"
      ],
      [
        "Ġ",
        "json"
      ],
      [
        "Ġ",
        "tÃ©cnica"
      ],
      [
        "ĥ",
        "O"
      ],
      [
        "ra",
        "da"
      ],
      [
        "ra",
        "vi"
      ],
      [
        "ra",
        "Ã§o"
      ],
      [
        "Ġe",
        "vi"
      ],
      [
        "Ġc",
        "rio"
      ],
      [
        "Ġc",
        "Ã©"
      ],
      [
        "Ġc",
        "ente"
      ],
      [
        "Ġc",
        "he"
      ],
      [
        "Ġc",
        "entra"
      ],
      [
        "Ġc",
        "iÃªncia"
      ],
      [
        "Ġc",
        "lone"
      ],
      [
        "te",
        "mÃ¡"
      ],
      [
        "Ġd",
        "or"
      ],
      [
        "la",
        "da"
      ],
      [
        "Ġa",
        "ti"
      ],
      [
        "Ġa",
        "nte"
      ],
      [
        "Ġa",
        "tribui"
      ],
      [
        "Ġp",
        "i"
      ],
      [
        "Ġp",
        "u"
      ],
      [
        "Ġp",
        "on"
      ],
      [
        "da",
        "ndo"
      ],
      [
        "Ġde",
        "te"
      ],
      [
        "Ġde",
        "la"
      ],
      [
        "Ġde",
        "ve"
      ],
      [
        "Ġde",
        "tal"
      ],
      [
        "ti",
        "me"
      ],
      [
        "ti",
        "co"
      ],
      [
        "ti",
        "dores"
      ],
      [
        "ti",
        "que"
      ],
      [
        "ti",
        "ficar"
      ],
      [
        "ti",
        "vidade"
      ],
      [
        "Ġu",
        "n"
      ],
      [
        "el",
        "oc"
      ],
      [
        "el",
        "ha"
      ],
      [
        "ta",
        "o"
      ],
      [
        "ta",
        "ntes"
      ],
      [
        "ta",
        "nto"
      ],
      [
        "in",
        "do"
      ],
      [
        "in",
        "as"
      ],
      [
        "in",
        "hado"
      ],
      [
        "ri",
        "l"
      ],
      [
        "ri",
        "es"
      ],
      [
        "ri",
        "ca"
      ],
      [
        "ri",
        "fi"
      ],
      [
        "ri",
        "cos"
      ],
      [
        "me",
        "ira"
      ],
      [
        "me",
        "tros"
      ],
      [
        "Ġf",
        "av"
      ],
      [
        "Ġf",
        "ini"
      ],
      [
        "Ġf",
        "inal"
      ],
      [
        "Ġf",
        "olhas"
      ],
      [
        "Ġf",
        "lex"
      ],
      [
        "es",
        "a"
      ],
      [
        "is",
        "e"
      ],
      [
        "is",
        "er"
      ],
      [
        "oc",
        "a"
      ],
      [
        "oc",
        "ker"
      ],
      [
        "ĠC",
        "on"
      ],
      [
        "qu",
        "en"
      ],
      [
        "qu",
        "ele"
      ],
      [
        "Ġs",
        "emp"
      ],
      [
        "Ġs",
        "ÃŃ"
      ],
      [
        "ĠV",
        "AR"
      ],
      [
        "ĠV",
        "ale"
      ],
      [
        "ĠU",
        "I"
      ],
      [
        "ĠU",
        "X"
      ],
      [
        "Ġpe",
        "quen"
      ],
      [
        "ĠM",
        "ic"
      ],
      [
        "ĠM",
        "ongo"
      ],
      [
        "ĠM",
        "ana"
      ],
      [
        "Ġ1",
        "3"
      ],
      [
        "Ġ1",
        "8"
      ],
      [
        "tra",
        "p"
      ],
      [
        "tra",
        "r"
      ],
      [
        "tra",
        "da"
      ],
      [
        "do",
        "ra"
      ],
      [
        "til",
        "o"
      ],
      [
        "ĠF",
        "ranÃ§a"
      ],
      [
        "ĠF",
        "olhas"
      ],
      [
        "ĠD",
        "i"
      ],
      [
        "ĠD",
        "is"
      ],
      [
        "ĠD",
        "OM"
      ],
      [
        "ĠD",
        "RY"
      ],
      [
        "pon",
        "ente"
      ],
      [
        "ĠR",
        "EA"
      ],
      [
        "Ġcriada",
        "s"
      ],
      [
        "to",
        "String"
      ],
      [
        "Ġqu",
        "ais"
      ],
      [
        "Ġqu",
        "iser"
      ],
      [
        "Ġn",
        "es"
      ],
      [
        "Ġn",
        "as"
      ],
      [
        "Ġn",
        "umero"
      ],
      [
        "Ġn",
        "unca"
      ],
      [
        "ro",
        "so"
      ],
      [
        "ro",
        "xima"
      ],
      [
        "Ã¡",
        "l"
      ],
      [
        "Ġpa",
        "us"
      ],
      [
        "Ġpa",
        "ÃŃs"
      ],
      [
        "ĠO",
        "R"
      ],
      [
        "ĠO",
        "i"
      ],
      [
        "ĠO",
        "s"
      ],
      [
        "Ġv",
        "o"
      ],
      [
        "Ġv",
        "ÃŃ"
      ],
      [
        "Ġv",
        "io"
      ],
      [
        "Ġv",
        "eloc"
      ],
      [
        "ca",
        "r"
      ],
      [
        "Ġem",
        "pres"
      ],
      [
        "de",
        "os"
      ],
      [
        "ci",
        "os"
      ],
      [
        "Ġl",
        "ingua"
      ],
      [
        "Ġl",
        "ug"
      ],
      [
        "Ġ`",
        "//"
      ],
      [
        "Ġ`",
        "*/"
      ],
      [
        "Ġ`",
        "=="
      ],
      [
        "Ġ`",
        "{}"
      ],
      [
        "Ã³",
        "s"
      ],
      [
        "Ã³",
        "ria"
      ],
      [
        "Ã³",
        "gi"
      ],
      [
        "Ã³",
        "rios"
      ],
      [
        "Ġpara",
        "r"
      ],
      [
        "Ġpara",
        "da"
      ],
      [
        "Ġcom",
        "ponente"
      ],
      [
        "ĠP",
        "an"
      ],
      [
        "ĠP",
        "omo"
      ],
      [
        "ĠP",
        "Ã¡gin"
      ],
      [
        "ĠP",
        "ack"
      ],
      [
        "ĠP",
        "yChar"
      ],
      [
        "lo",
        "ad"
      ],
      [
        "lo",
        "bal"
      ],
      [
        "Ġno",
        "t"
      ],
      [
        "Ġno",
        "va"
      ],
      [
        "Ġb",
        "om"
      ],
      [
        "Ġb",
        "oa"
      ],
      [
        "Ġb",
        "ons"
      ],
      [
        "Ġb",
        "aixar"
      ],
      [
        "Ġre",
        "de"
      ],
      [
        "Ġre",
        "ce"
      ],
      [
        "Ġre",
        "ais"
      ],
      [
        "Ġre",
        "quests"
      ],
      [
        "Ġre",
        "atribuÃŃdo"
      ],
      [
        "Ġre",
        "gis"
      ],
      [
        "men",
        "taÃ§Ã£o"
      ],
      [
        "Ġes",
        "quer"
      ],
      [
        "Ġes",
        "tou"
      ],
      [
        "Ġin",
        "dentaÃ§Ã£o"
      ],
      [
        "Ġte",
        "sta"
      ],
      [
        "os",
        "tre"
      ],
      [
        "Ġex",
        "istente"
      ],
      [
        "Ġex",
        "ten"
      ],
      [
        "Ġex",
        "plicaÃ§Ã£o"
      ],
      [
        "Ġex",
        "pli"
      ],
      [
        "Ġex",
        "terna"
      ],
      [
        "Ġus",
        "uÃ¡rios"
      ],
      [
        "gra",
        "fi"
      ],
      [
        "Ġou",
        "tros"
      ],
      [
        "Ġcon",
        "s"
      ],
      [
        "Ġcon",
        "tÃ©"
      ],
      [
        "Ġcon",
        "sel"
      ],
      [
        "Ġcon",
        "ec"
      ],
      [
        "Ġm",
        "ol"
      ],
      [
        "Ġm",
        "Ãº"
      ],
      [
        "pe",
        "ro"
      ],
      [
        "ha",
        "mento"
      ],
      [
        "Ġma",
        "ravi"
      ],
      [
        "Ġma",
        "temÃ¡"
      ],
      [
        "ol",
        "Ã¡"
      ],
      [
        "ol",
        "he"
      ],
      [
        "ĠJ",
        "Ã¡"
      ],
      [
        "ĠJ",
        "Ãº"
      ],
      [
        "ĠA",
        "plicaÃ§Ã£o"
      ],
      [
        "ĠA",
        "gora"
      ],
      [
        "ĠA",
        "ND"
      ],
      [
        "ĠA",
        "pplica"
      ],
      [
        "Ġco",
        "me"
      ],
      [
        "ÃŃ",
        "n"
      ],
      [
        "ÃŃ",
        "veis"
      ],
      [
        "ĠS",
        "a"
      ],
      [
        "ĠS",
        "tring"
      ],
      [
        "Ġdi",
        "cion"
      ],
      [
        "Ġdi",
        "ver"
      ],
      [
        "ndo",
        "m"
      ],
      [
        "ĠH",
        "ello"
      ],
      [
        "ĠH",
        "ipertexto"
      ],
      [
        "ĠH",
        "yperText"
      ],
      [
        "Ġar",
        "r"
      ],
      [
        "Ġar",
        "redon"
      ],
      [
        "Ġcomp",
        "ara"
      ],
      [
        "ua",
        "is"
      ],
      [
        "rm",
        "o"
      ],
      [
        "rm",
        "ula"
      ],
      [
        "Ġen",
        "con"
      ],
      [
        "Ġen",
        "tanto"
      ],
      [
        "Ġen",
        "trada"
      ],
      [
        "di",
        "Ã§Ã£o"
      ],
      [
        "res",
        "posta"
      ],
      [
        "tru",
        "e"
      ],
      [
        "Ġ=",
        "="
      ],
      [
        "ho",
        "je"
      ],
      [
        "Ġinte",
        "gra"
      ],
      [
        "Ġfun",
        "Ã§Ãµes"
      ],
      [
        "li",
        "a"
      ],
      [
        "li",
        "da"
      ],
      [
        "ĠN",
        "OT"
      ],
      [
        "oo",
        "ts"
      ],
      [
        "()",
        ";`"
      ],
      [
        "ĠB",
        "oolean"
      ],
      [
        "ĠB",
        "ash"
      ],
      [
        "ĠB",
        "oots"
      ],
      [
        "Ġ2",
        "0"
      ],
      [
        "Ġ2",
        "1"
      ],
      [
        "Ġ2",
        "4"
      ],
      [
        "Ġestrutura",
        "da"
      ],
      [
        "Ġestrutura",
        "dos"
      ],
      [
        "Ġestrutura",
        "das"
      ],
      [
        "Ġna",
        "tivo"
      ],
      [
        "bu",
        "tt"
      ],
      [
        "ente",
        "mente"
      ],
      [
        "Ġme",
        "tada"
      ],
      [
        "si",
        "vidade"
      ],
      [
        "ĠT",
        "erra"
      ],
      [
        "ĠT",
        "AB"
      ],
      [
        "Ġpar",
        "tes"
      ],
      [
        "con",
        "tador"
      ],
      [
        "gu",
        "las"
      ],
      [
        "pa",
        "is"
      ],
      [
        "pa",
        "gem"
      ],
      [
        "pi",
        "p"
      ],
      [
        "pi",
        "damente"
      ],
      [
        "Ġsim",
        "ular"
      ],
      [
        "Ġva",
        "gas"
      ],
      [
        "pu",
        "t"
      ],
      [
        "Ġh",
        "ref"
      ],
      [
        "Ġh",
        "tml"
      ],
      [
        "Ġi",
        "de"
      ],
      [
        "Ġi",
        "den"
      ],
      [
        "Ġtra",
        "var"
      ],
      [
        "Ġres",
        "posta"
      ],
      [
        "Ġap",
        "roxima"
      ],
      [
        "Ġap",
        "Ã³s"
      ],
      [
        "Ġutiliz",
        "ado"
      ],
      [
        "us",
        "ing"
      ],
      [
        "ĠestÃ¡",
        "tica"
      ],
      [
        "Ġproje",
        "tado"
      ],
      [
        "Ġele",
        "mento"
      ],
      [
        "Ġele",
        "vado"
      ],
      [
        "rig",
        "ado"
      ],
      [
        "Ġra",
        "ndom"
      ],
      [
        "Ġra",
        "pidamente"
      ],
      [
        "Ġto",
        "da"
      ],
      [
        "Ġto",
        "mar"
      ],
      [
        "Ġmen",
        "us"
      ],
      [
        "ĠVe",
        "rifi"
      ],
      [
        "ĠMe",
        "dia"
      ],
      [
        "Ġbas",
        "tidores"
      ],
      [
        "Ġreposit",
        "Ã³rios"
      ],
      [
        "ĠEs",
        "cre"
      ],
      [
        "ĠEs",
        "tilo"
      ],
      [
        "ĠEs",
        "pero"
      ],
      [
        "Ġdesenvolvi",
        "do"
      ],
      [
        "are",
        "m"
      ],
      [
        "bo",
        "tao"
      ],
      [
        "ch",
        "ar"
      ],
      [
        "ch",
        "ine"
      ],
      [
        "gi",
        "l"
      ],
      [
        "Ġ+",
        "="
      ],
      [
        "Ġg",
        "it"
      ],
      [
        "Ġg",
        "lobal"
      ],
      [
        "Ġdu",
        "rmo"
      ],
      [
        "Ġloc",
        "ais"
      ],
      [
        "end",
        "Ã¡rio"
      ],
      [
        "Ġten",
        "ta"
      ],
      [
        "Ġten",
        "tou"
      ],
      [
        "Ġdire",
        "ta"
      ],
      [
        "Ġobje",
        "tivo"
      ],
      [
        "Ġpermite",
        "m"
      ],
      [
        "ĠL",
        "ear"
      ],
      [
        "Ġsu",
        "porte"
      ],
      [
        "ĠÃº",
        "lti"
      ],
      [
        "Ġvis",
        "ÃŃvel"
      ],
      [
        "Ġconver",
        "sa"
      ],
      [
        "Ġinter",
        "na"
      ],
      [
        "Ġinter",
        "rom"
      ],
      [
        "ima",
        "Ã§Ãµes"
      ],
      [
        "per",
        "sÃ£o"
      ],
      [
        "Ġ8",
        "0"
      ],
      [
        "Ġ8",
        "1"
      ],
      [
        "Ġti",
        "ver"
      ],
      [
        "Ġti",
        "pagem"
      ],
      [
        "Ġdis",
        "pon"
      ],
      [
        "ĠInte",
        "lig"
      ],
      [
        "be",
        "Ã§"
      ],
      [
        "Ġca",
        "beÃ§"
      ],
      [
        "Ġac",
        "olhe"
      ],
      [
        "Ġper",
        "corre"
      ],
      [
        "tou",
        "ch"
      ],
      [
        "Ġrepe",
        "te"
      ],
      [
        "tica",
        "mente"
      ],
      [
        "Ġ(`",
        "#"
      ],
      [
        "Ġconte",
        "nte"
      ],
      [
        "Ġintera",
        "tiva"
      ],
      [
        "Ġab",
        "raÃ§o"
      ],
      [
        "Ġab",
        "ril"
      ],
      [
        "Ġpri",
        "meira"
      ],
      [
        "ĠMar",
        "caÃ§Ã£o"
      ],
      [
        "Ġfuncion",
        "a"
      ],
      [
        "Ġfuncion",
        "e"
      ],
      [
        "Ġfuncion",
        "o"
      ],
      [
        "bug",
        "s"
      ],
      [
        "Ġgera",
        "r"
      ],
      [
        "Ġprinci",
        "pais"
      ],
      [
        "ran",
        "dint"
      ],
      [
        "Ġan",
        "inhado"
      ],
      [
        "Ġan",
        "imaÃ§Ãµes"
      ],
      [
        "ĠDe",
        "puraÃ§Ã£o"
      ],
      [
        "Ġle",
        "gÃŃvel"
      ],
      [
        "Ġremo",
        "ver"
      ],
      [
        "Ġproc",
        "ess"
      ],
      [
        "Ġcomple",
        "x"
      ],
      [
        "Ġorgan",
        "izado"
      ],
      [
        "Ġorgan",
        "izada"
      ],
      [
        "Ġtrabal",
        "har"
      ],
      [
        "Ġmenor",
        "es"
      ],
      [
        "Ġmod",
        "elo"
      ],
      [
        "Ġdocu",
        "mentos"
      ],
      [
        "Ġdocu",
        "mentaÃ§Ã£o"
      ],
      [
[...]
